{
  "!": 0,
  "\"": 1,
  "$": 2,
  "%": 3,
  "&": 4,
  "'": 5,
  "(": 6,
  ")": 7,
  "*": 8,
  "+": 9,
  ",": 10,
  "-": 11,
  ".": 12,
  "/": 13,
  "0": 14,
  "1": 15,
  "2": 16,
  "3": 17,
  "4": 18,
  "5": 19,
  "6": 20,
  "7": 21,
  "8": 22,
  "9": 23,
  ":": 24,
  ";": 25,
  "<": 26,
  "=": 27,
  ">": 28,
  "?": 29,
  "A": 30,
  "B": 31,
  "C": 32,
  "D": 33,
  "E": 34,
  "F": 35,
  "G": 36,
  "H": 37,
  "I": 38,
  "J": 39,
  "K": 40,
  "L": 41,
  "M": 42,
  "N": 43,
  "O": 44,
  "P": 45,
  "Q": 46,
  "R": 47,
  "S": 48,
  "T": 49,
  "U": 50,
  "V": 51,
  "W": 52,
  "X": 53,
  "Y": 54,
  "Z": 55,
  "[": 56,
  "\\": 57,
  "]": 58,
  "_": 59,
  "`": 60,
  "a": 61,
  "b": 62,
  "c": 63,
  "d": 64,
  "e": 65,
  "f": 66,
  "g": 67,
  "h": 68,
  "i": 69,
  "j": 70,
  "k": 71,
  "l": 72,
  "m": 73,
  "n": 74,
  "o": 75,
  "p": 76,
  "q": 77,
  "r": 78,
  "s": 79,
  "t": 80,
  "u": 81,
  "v": 82,
  "w": 83,
  "x": 84,
  "y": 85,
  "z": 86,
  "{": 87,
  "|": 88,
  "~": 89,
  "¡": 90,
  "¢": 91,
  "£": 92,
  "¤": 93,
  "¥": 94,
  "¦": 95,
  "¨": 96,
  "©": 97,
  "ª": 98,
  "®": 99,
  "°": 100,
  "±": 101,
  "³": 102,
  "´": 103,
  "µ": 104,
  "¶": 105,
  "¹": 106,
  "»": 107,
  "¼": 108,
  "¾": 109,
  "¿": 110,
  "Â": 111,
  "Ä": 112,
  "Å": 113,
  "É": 114,
  "Ê": 115,
  "Ñ": 116,
  "Ò": 117,
  "á": 118,
  "å": 119,
  "æ": 120,
  "ç": 121,
  "è": 122,
  "é": 123,
  "ï": 124,
  "ĉ": 125,
  "Ċ": 126,
  "Ġ": 127,
  "Ģ": 128,
  "ģ": 129,
  "ĥ": 130,
  "Ħ": 131,
  "ħ": 132,
  "Ĩ": 133,
  "ĩ": 134,
  "Ī": 135,
  "ī": 136,
  "Ĭ": 137,
  "ĭ": 138,
  "Į": 139,
  "į": 140,
  "İ": 141,
  "ı": 142,
  "Ĳ": 143,
  "ĳ": 144,
  "Ĵ": 145,
  "ĵ": 146,
  "Ķ": 147,
  "ĸ": 148,
  "ĺ": 149,
  "Ļ": 150,
  "ļ": 151,
  "Ľ": 152,
  "ľ": 153,
  "Ŀ": 154,
  "ŀ": 155,
  "Ġt": 156,
  "Ġa": 157,
  "he": 158,
  "in": 159,
  "re": 160,
  "on": 161,
  "Ġthe": 162,
  "er": 163,
  "Ġs": 164,
  "at": 165,
  "Ġw": 166,
  "Ġo": 167,
  "en": 168,
  "Ġc": 169,
  "it": 170,
  "is": 171,
  "an": 172,
  "or": 173,
  "es": 174,
  "Ġb": 175,
  "ed": 176,
  "Ġf": 177,
  "ing": 178,
  "Ġp": 179,
  "ou": 180,
  "Ġan": 181,
  "al": 182,
  "ar": 183,
  "Ġto": 184,
  "Ġm": 185,
  "Ġof": 186,
  "Ġin": 187,
  "Ġd": 188,
  "Ġh": 189,
  "Ġand": 190,
  "ic": 191,
  "as": 192,
  "le": 193,
  "Ġth": 194,
  "ion": 195,
  "om": 196,
  "ll": 197,
  "ent": 198,
  "Ġn": 199,
  "Ġl": 200,
  "st": 201,
  "Ġre": 202,
  "ve": 203,
  "Ġe": 204,
  "ro": 205,
  "ly": 206,
  "Ġbe": 207,
  "Ġg": 208,
  "ĠT": 209,
  "ct": 210,
  "ĠS": 211,
  "id": 212,
  "ot": 213,
  "ĠI": 214,
  "ut": 215,
  "et": 216,
  "ĠA": 217,
  "Ġis": 218,
  "Ġon": 219,
  "im": 220,
  "am": 221,
  "ow": 222,
  "ay": 223,
  "ad": 224,
  "se": 225,
  "Ġthat": 226,
  "ĠC": 227,
  "ig": 228,
  "Ġfor": 229,
  "ac": 230,
  "Ġy": 231,
  "ver": 232,
  "ur": 233,
  "Ġu": 234,
  "ld": 235,
  "Ġst": 236,
  "ĠM": 237,
  "'s": 238,
  "Ġhe": 239,
  "Ġit": 240,
  "ation": 241,
  "ith": 242,
  "ir": 243,
  "ce": 244,
  "Ġyou": 245,
  "il": 246,
  "ĠB": 247,
  "Ġwh": 248,
  "ol": 249,
  "ĠP": 250,
  "Ġwith": 251,
  "Ġ1": 252,
  "ter": 253,
  "ch": 254,
  "Ġas": 255,
  "Ġwe": 256,
  "Ġ(": 257,
  "nd": 258,
  "ill": 259,
  "ĠD": 260,
  "if": 261,
  "Ġ2": 262,
  "ag": 263,
  "ers": 264,
  "ke": 265,
  "Ġ\"": 266,
  "ĠH": 267,
  "em": 268,
  "Ġcon": 269,
  "ĠW": 270,
  "ĠR": 271,
  "her": 272,
  "Ġwas": 273,
  "Ġr": 274,
  "od": 275,
  "ĠF": 276,
  "ul": 277,
  "ate": 278,
  "Ġat": 279,
  "ri": 280,
  "pp": 281,
  "ore": 282,
  "ĠThe": 283,
  "Ġse": 284,
  "us": 285,
  "Ġpro": 286,
  "Ġha": 287,
  "um": 288,
  "Ġare": 289,
  "Ġde": 290,
  "ain": 291,
  "and": 292,
  "Ġor": 293,
  "igh": 294,
  "est": 295,
  "ist": 296,
  "ab": 297,
  "rom": 298,
  "ĠN": 299,
  "th": 300,
  "Ġcom": 301,
  "ĠG": 302,
  "un": 303,
  "op": 304,
  "00": 305,
  "ĠL": 306,
  "Ġnot": 307,
  "ess": 308,
  "Ġex": 309,
  "Ġv": 310,
  "res": 311,
  "ĠE": 312,
  "ew": 313,
  "ity": 314,
  "ant": 315,
  "Ġby": 316,
  "el": 317,
  "os": 318,
  "ort": 319,
  "oc": 320,
  "qu": 321,
  "Ġfrom": 322,
  "Ġhave": 323,
  "Ġsu": 324,
  "ive": 325,
  "ould": 326,
  "Ġsh": 327,
  "Ġthis": 328,
  "nt": 329,
  "ra": 330,
  "pe": 331,
  "ight": 332,
  "art": 333,
  "ment": 334,
  "Ġal": 335,
  "ust": 336,
  "end": 337,
  "--": 338,
  "all": 339,
  "ĠO": 340,
  "ack": 341,
  "Ġch": 342,
  "Ġle": 343,
  "ies": 344,
  "red": 345,
  "ard": 346,
  "âĢ": 347,
  "out": 348,
  "ĠJ": 349,
  "Ġab": 350,
  "ear": 351,
  "iv": 352,
  "ally": 353,
  "our": 354,
  "ost": 355,
  "gh": 356,
  "pt": 357,
  "Ġpl": 358,
  "ast": 359,
  "Ġcan": 360,
  "ak": 361,
  "ome": 362,
  "ud": 363,
  "The": 364,
  "Ġhis": 365,
  "Ġdo": 366,
  "Ġgo": 367,
  "Ġhas": 368,
  "ge": 369,
  "'t": 370,
  "ĠU": 371,
  "rou": 372,
  "Ġsa": 373,
  "Ġj": 374,
  "Ġbut": 375,
  "Ġwor": 376,
  "Ġall": 377,
  "ect": 378,
  "Ġk": 379,
  "ame": 380,
  "Ġwill": 381,
  "ok": 382,
  "Ġwhe": 383,
  "Ġthey": 384,
  "ide": 385,
  "ff": 386,
  "ich": 387,
  "pl": 388,
  "ther": 389,
  "Ġtr": 390,
  "..": 391,
  "Ġint": 392,
  "ie": 393,
  "ure": 394,
  "age": 395,
  "Ġne": 396,
  "ial": 397,
  "ap": 398,
  "ine": 399,
  "ice": 400,
  "Ġme": 401,
  "Ġout": 402,
  "ans": 403,
  "one": 404,
  "ong": 405,
  "ions": 406,
  "Ġwho": 407,
  "ĠK": 408,
  "Ġup": 409,
  "Ġtheir": 410,
  "Ġad": 411,
  "Ġ3": 412,
  "Ġus": 413,
  "ated": 414,
  "ous": 415,
  "Ġmore": 416,
  "ue": 417,
  "og": 418,
  "ĠSt": 419,
  "ind": 420,
  "ike": 421,
  "Ġso": 422,
  "ime": 423,
  "per": 424,
  ".\"": 425,
  "ber": 426,
  "iz": 427,
  "act": 428,
  "Ġone": 429,
  "Ġsaid": 430,
  "Ġ-": 431,
  "are": 432,
  "Ġyour": 433,
  "cc": 434,
  "ĠTh": 435,
  "Ġcl": 436,
  "ep": 437,
  "ake": 438,
  "able": 439,
  "ip": 440,
  "Ġcont": 441,
  "Ġwhich": 442,
  "ia": 443,
  "Ġim": 444,
  "Ġabout": 445,
  "Ġwere": 446,
  "very": 447,
  "ub": 448,
  "Ġhad": 449,
  "Ġen": 450,
  "Ġcomp": 451,
  ",\"": 452,
  "ĠIn": 453,
  "Ġun": 454,
  "Ġag": 455,
  "ire": 456,
  "ace": 457,
  "au": 458,
  "ary": 459,
  "Ġwould": 460,
  "ass": 461,
  "ry": 462,
  "ĠâĢ": 463,
  "cl": 464,
  "ook": 465,
  "ere": 466,
  "so": 467,
  "ĠV": 468,
  "ign": 469,
  "ib": 470,
  "Ġoff": 471,
  "Ġte": 472,
  "ven": 473,
  "ĠY": 474,
  "ile": 475,
  "ose": 476,
  "ite": 477,
  "orm": 478,
  "Ġres": 479,
  "Ġman": 480,
  "Ġper": 481,
  "Ġother": 482,
  "ord": 483,
  "ult": 484,
  "Ġbeen": 485,
  "Ġlike": 486,
  "ase": 487,
  "ance": 488,
  "ks": 489,
  "ays": 490,
  "own": 491,
  "ence": 492,
  "Ġdis": 493,
  "ction": 494,
  "Ġany": 495,
  "Ġapp": 496,
  "Ġsp": 497,
  "int": 498,
  "ress": 499,
  "ations": 500,
  "ail": 501,
  "Ġ4": 502,
  "ical": 503,
  "Ġthem": 504,
  "Ġher": 505,
  "ount": 506,
  "ĠCh": 507,
  "Ġar": 508,
  "Ġif": 509,
  "Ġthere": 510,
  "Ġpe": 511,
  "Ġyear": 512,
  "av": 513,
  "Ġmy": 514,
  "Ġsome": 515,
  "Ġwhen": 516,
  "ough": 517,
  "ach": 518,
  "Ġthan": 519,
  "ru": 520,
  "ond": 521,
  "ick": 522,
  "Ġover": 523,
  "vel": 524,
  "Ġqu": 525,
  "ĊĊ": 526,
  "Ġsc": 527,
  "reat": 528,
  "ree": 529,
  "ĠIt": 530,
  "ound": 531,
  "port": 532,
  "Ġalso": 533,
  "Ġpart": 534,
  "fter": 535,
  "Ġkn": 536,
  "Ġbec": 537,
  "Ġtime": 538,
  "ens": 539,
  "Ġ5": 540,
  "ople": 541,
  "Ġwhat": 542,
  "Ġno": 543,
  "du": 544,
  "mer": 545,
  "ang": 546,
  "Ġnew": 547,
  "----": 548,
  "Ġget": 549,
  "ory": 550,
  "ition": 551,
  "ings": 552,
  "Ġjust": 553,
  "Ġinto": 554,
  "Ġ0": 555,
  "ents": 556,
  "ove": 557,
  "te": 558,
  "Ġpeople": 559,
  "Ġpre": 560,
  "Ġits": 561,
  "Ġrec": 562,
  "Ġtw": 563,
  "ian": 564,
  "irst": 565,
  "ark": 566,
  "ors": 567,
  "Ġwork": 568,
  "ade": 569,
  "ob": 570,
  "Ġshe": 571,
  "Ġour": 572,
  "wn": 573,
  "ink": 574,
  "lic": 575,
  "Ġ19": 576,
  "ĠHe": 577,
  "ish": 578,
  "ause": 579,
  "Ġhim": 580,
  "ons": 581,
  "Ġ[": 582,
  "Ġro": 583,
  "form": 584,
  "ild": 585,
  "ates": 586,
  "vers": 587,
  "Ġonly": 588,
  "oll": 589,
  "Ġspe": 590,
  "ck": 591,
  "ell": 592,
  "amp": 593,
  "Ġacc": 594,
  "Ġbl": 595,
  "ious": 596,
  "urn": 597,
  "ft": 598,
  "ood": 599,
  "Ġhow": 600,
  "hed": 601,
  "Ġ'": 602,
  "Ġafter": 603,
  "aw": 604,
  "Ġatt": 605,
  "ov": 606,
  "ne": 607,
  "Ġplay": 608,
  "erv": 609,
  "ict": 610,
  "Ġcould": 611,
  "itt": 612,
  "Ġam": 613,
  "Ġfirst": 614,
  "Ġ6": 615,
  "Ġact": 616,
  "Ġ$": 617,
  "ec": 618,
  "hing": 619,
  "ual": 620,
  "ull": 621,
  "Ġcomm": 622,
  "oy": 623,
  "old": 624,
  "ces": 625,
  "ater": 626,
  "Ġfe": 627,
  "Ġbet": 628,
  "we": 629,
  "iff": 630,
  "Ġtwo": 631,
  "ock": 632,
  "Ġback": 633,
  ").": 634,
  "ident": 635,
  "Ġunder": 636,
  "rough": 637,
  "sel": 638,
  "xt": 639,
  "Ġmay": 640,
  "round": 641,
  "Ġpo": 642,
  "ph": 643,
  "iss": 644,
  "Ġdes": 645,
  "Ġmost": 646,
  "Ġdid": 647,
  "Ġadd": 648,
  "ject": 649,
  "Ġinc": 650,
  "fore": 651,
  "Ġpol": 652,
  "ont": 653,
  "Ġagain": 654,
  "tern": 655,
  "Ġknow": 656,
  "Ġneed": 657,
  "Ġcons": 658,
  "Ġco": 659,
  "Ġ.": 660,
  "Ġwant": 661,
  "Ġsee": 662,
  "Ġ7": 663,
  "ning": 664,
  "ĠThis": 665,
  "ced": 666,
  "Ġeven": 667,
  "Ġind": 668,
  "ty": 669,
  "ĠWe": 670,
  "ath": 671,
  "Ġthese": 672,
  "Ġpr": 673,
  "Ġuse": 674,
  "Ġbecause": 675,
  "Ġfl": 676,
  "ng": 677,
  "Ġnow": 678,
  "ĠâĢĵ": 679,
  "com": 680,
  "ise": 681,
  "Ġmake": 682,
  "Ġthen": 683,
  "ower": 684,
  "Ġevery": 685,
  "ĠUn": 686,
  "Ġsec": 687,
  "oss": 688,
  "uch": 689,
  "Ġem": 690,
  "Ġ=": 691,
  "ĠRe": 692,
  "ied": 693,
  "rit": 694,
  "Ġinv": 695,
  "lect": 696,
  "Ġsupp": 697,
  "ating": 698,
  "Ġlook": 699,
  "man": 700,
  "pect": 701,
  "Ġ8": 702,
  "row": 703,
  "Ġbu": 704,
  "Ġwhere": 705,
  "ific": 706,
  "Ġyears": 707,
  "ily": 708,
  "Ġdiff": 709,
  "Ġshould": 710,
  "Ġrem": 711,
  "Th": 712,
  "In": 713,
  "Ġev": 714,
  "day": 715,
  "'re": 716,
  "rib": 717,
  "Ġrel": 718,
  "ss": 719,
  "Ġdef": 720,
  "Ġright": 721,
  "Ġsy": 722,
  "),": 723,
  "les": 724,
  "000": 725,
  "hen": 726,
  "Ġthrough": 727,
  "ĠTr": 728,
  "__": 729,
  "Ġway": 730,
  "Ġdon": 731,
  "Ġ,": 732,
  "Ġ10": 733,
  "ased": 734,
  "Ġass": 735,
  "Ġreg": 736,
  "ĠAnd": 737,
  "ix": 738,
  "Ġvery": 739,
  "other": 740,
  "Ġimp": 741,
  "oth": 742,
  "Ġsub": 743,
  "ĠâĢĶ": 744,
  "Ġbeing": 745,
  "arg": 746,
  "ĠWh": 747,
  "ible": 748,
  "Ġdoes": 749,
  "ange": 750,
  "ram": 751,
  "Ġ9": 752,
  "ert": 753,
  "ps": 754,
  "ited": 755,
  "ational": 756,
  "Ġbr": 757,
  "Ġdown": 758,
  "Ġmany": 759,
  "aking": 760,
  "Ġcall": 761,
  "uring": 762,
  "ities": 763,
  "Ġph": 764,
  "ics": 765,
  "als": 766,
  "Ġdec": 767,
  "ative": 768,
  "ener": 769,
  "Ġbefore": 770,
  "ility": 771,
  "Ġwell": 772,
  "Ġmuch": 773,
  "erson": 774,
  "Ġthose": 775,
  "Ġsuch": 776,
  "Ġke": 777,
  "Ġend": 778,
  "ĠBut": 779,
  "ason": 780,
  "ting": 781,
  "Ġlong": 782,
  "ef": 783,
  "Ġthink": 784,
  "ys": 785,
  "Ġbel": 786,
  "Ġsm": 787,
  "its": 788,
  "ax": 789,
  "Ġown": 790,
  "Ġset": 791,
  "ife": 792,
  "ments": 793,
  "ble": 794,
  "ward": 795,
  "Ġshow": 796,
  "Ġpres": 797,
  "ms": 798,
  "omet": 799,
  "Ġob": 800,
  "Ġsay": 801,
  "ĠSh": 802,
  "ts": 803,
  "ful": 804,
  "Ġgu": 805,
  "Ġinst": 806,
  "und": 807,
  "ren": 808,
  "cess": 809,
  "Ġent": 810,
  "ĠYou": 811,
  "Ġgood": 812,
  "Ġstart": 813,
  "ince": 814,
  "Ġmade": 815,
  "tt": 816,
  "stem": 817,
  "olog": 818,
  "up": 819,
  "Ġ|": 820,
  "ump": 821,
  "Ġhel": 822,
  "vern": 823,
  "ular": 824,
  "ually": 825,
  "Ġac": 826,
  "Ġmon": 827,
  "Ġlast": 828,
  "Ġ200": 829,
  "10": 830,
  "Ġstud": 831,
  "ures": 832,
  "ĠAr": 833,
  "self": 834,
  "ars": 835,
  "meric": 836,
  "ues": 837,
  "cy": 838,
  "Ġmin": 839,
  "Ġcol": 840,
  "io": 841,
  "Ġcount": 842,
  "ĠCom": 843,
  "hes": 844,
  "Ġfin": 845,
  "air": 846,
  "ier": 847,
  "âĢĶ": 848,
  "read": 849,
  "ank": 850,
  "atch": 851,
  "ever": 852,
  "Ġstr": 853,
  "Ġpoint": 854,
  "ork": 855,
  "ĠNew": 856,
  "Ġsur": 857,
  "ool": 858,
  "alk": 859,
  "ement": 860,
  "Ġused": 861,
  "ract": 862,
  "ween": 863,
  "Ġsame": 864,
  "oun": 865,
  "ĠAl": 866,
  "ci": 867,
  "Ġwhile": 868,
  "Ġgame": 869,
  "cept": 870,
  "Ġsim": 871,
  "...": 872,
  "Ġinter": 873,
  "ek": 874,
  "Ġreport": 875,
  "Ġstill": 876,
  "led": 877,
  "ah": 878,
  "Ġhere": 879,
  "Ġworld": 880,
  "Ġthough": 881,
  "Ġnum": 882,
  "arch": 883,
  "imes": 884,
  "ale": 885,
  "ĠSe": 886,
  "ĠIf": 887,
  "ĠLe": 888,
  "Ġret": 889,
  "Ġref": 890,
  "ner": 891,
  "ution": 892,
  "ters": 893,
  "Ġtake": 894,
  "ĠCl": 895,
  "Ġconf": 896,
  "way": 897,
  "ave": 898,
  "Ġgoing": 899,
  "Ġsl": 900,
  "ug": 901,
  "Ġspec": 902,
  "Ġhand": 903,
  "Ġbetween": 904,
  "ists": 905,
  "ĠDe": 906,
  "oot": 907,
  "It": 908,
  "Ġear": 909,
  "Ġagainst": 910,
  "Ġhigh": 911,
  "gan": 912,
  "az": 913,
  "ather": 914,
  "Ġexp": 915,
  "Ġop": 916,
  "Ġins": 917,
  "Ġgr": 918,
  "Ġhelp": 919,
  "ets": 920,
  "ins": 921,
  "ĠPro": 922,
  "ism": 923,
  "Ġfound": 924,
  "land": 925,
  "ata": 926,
  "uss": 927,
  "ames": 928,
  "Ġperson": 929,
  "Ġgreat": 930,
  "pr": 931,
  "Ġsign": 932,
  "ĠAn": 933,
  "'ve": 934,
  "Ġsomet": 935,
  "Ġser": 936,
  "hip": 937,
  "Ġrun": 938,
  "Ġ:": 939,
  "Ġter": 940,
  "Ġfollow": 941,
  "Ġdet": 942,
  "ices": 943,
  "Ġfind": 944,
  "12": 945,
  "Ġcr": 946,
  "ered": 947,
  "ex": 948,
  "uth": 949,
  "ense": 950,
  "co": 951,
  "Ġteam": 952,
  "ving": 953,
  "ouse": 954,
  "ash": 955,
  "att": 956,
  "ved": 957,
  "Ġsystem": 958,
  "ĠAs": 959,
  "der": 960,
  "ives": 961,
  "min": 962,
  "Ġlead": 963,
  "ĠBl": 964,
  "cent": 965,
  "Ġaround": 966,
  "Ġcur": 967,
  "velop": 968,
  "any": 969,
  "Ġcour": 970,
  "alth": 971,
  "ages": 972,
  "ize": 973,
  "Ġcar": 974,
  "ode": 975,
  "Ġlaw": 976,
  "Ġread": 977,
  "'m": 978,
  "con": 979,
  "Ġreal": 980,
  "Ġsupport": 981,
  "Ġ12": 982,
  "....": 983,
  "Ġreally": 984,
  "ness": 985,
  "Ġfact": 986,
  "Ġday": 987,
  "Ġboth": 988,
  "ying": 989,
  "Ġserv": 990,
  "ĠFor": 991,
  "Ġthree": 992,
  "Ġwom": 993,
  "Ġmed": 994,
  "ody": 995,
  "ĠThey": 996,
  "50": 997,
  "ton": 998,
  "Ġeach": 999,
  "akes": 1000,
  "Ġche": 1001,
  "Ġcre": 1002,
  "ines": 1003,
  "Ġrep": 1004,
  "19": 1005,
  "gg": 1006,
  "illion": 1007,
  "Ġgrou": 1008,
  "ute": 1009,
  "ik": 1010,
  "We": 1011,
  "get": 1012,
  "ER": 1013,
  "Ġmet": 1014,
  "Ġsays": 1015,
  "ox": 1016,
  "Ġduring": 1017,
  "ern": 1018,
  "ized": 1019,
  "ared": 1020,
  "Ġfam": 1021,
  "ically": 1022,
  "Ġhapp": 1023,
  "ĠIs": 1024,
  "Ġchar": 1025,
  "med": 1026,
  "vent": 1027,
  "ient": 1028,
  "ple": 1029,
  "iet": 1030,
  "rent": 1031,
  "11": 1032,
  "ves": 1033,
  "ption": 1034,
  "Ġ20": 1035,
  "formation": 1036,
  "Ġcor": 1037,
  "Ġoffic": 1038,
  "ield": 1039,
  "Ġtoo": 1040,
  "Ġinf": 1041,
  "ĠZ": 1042,
  "the": 1043,
  "oad": 1044,
  "Ġpublic": 1045,
  "Ġprog": 1046,
  "ric": 1047,
  "**": 1048,
  "Ġwar": 1049,
  "Ġpower": 1050,
  "view": 1051,
  "Ġfew": 1052,
  "Ġdifferent": 1053,
  "Ġstate": 1054,
  "Ġhead": 1055,
  "'ll": 1056,
  "Ġposs": 1057,
  "ret": 1058,
  "ants": 1059,
  "Ġval": 1060,
  "Ġcle": 1061,
  "ivers": 1062,
  "anc": 1063,
  "Ġexpl": 1064,
  "Ġanother": 1065,
  "ĠQ": 1066,
  "Ġav": 1067,
  "thing": 1068,
  "nce": 1069,
  "Wh": 1070,
  "Ġchild": 1071,
  "Ġsince": 1072,
  "ired": 1073,
  "less": 1074,
  "Ġlife": 1075,
  "Ġdevelop": 1076,
  "ittle": 1077,
  "Ġpass": 1078,
  "Ġturn": 1079,
  "orn": 1080,
  "This": 1081,
  "bers": 1082,
  "ross": 1083,
  "ĠAd": 1084,
  "Ġfr": 1085,
  "Ġresp": 1086,
  "Ġsecond": 1087,
  "oh": 1088,
  "Ġ/": 1089,
  "Ġdisc": 1090,
  "Ġ&": 1091,
  "Ġsomething": 1092,
  "Ġcomple": 1093,
  "Ġed": 1094,
  "Ġfil": 1095,
  "Ġmonth": 1096,
  "aj": 1097,
  "uc": 1098,
  "Ġgovernment": 1099,
  "Ġwithout": 1100,
  "Ġleg": 1101,
  "Ġdist": 1102,
  "Ġput": 1103,
  "Ġquest": 1104,
  "ann": 1105,
  "Ġprot": 1106,
  "20": 1107,
  "Ġnever": 1108,
  "ience": 1109,
  "Ġlevel": 1110,
  "Ġart": 1111,
  "Ġthings": 1112,
  "Ġmight": 1113,
  "Ġeffect": 1114,
  "Ġcent": 1115,
  "Ġ18": 1116,
  "Ġallow": 1117,
  "chool": 1118,
  "ott": 1119,
  "Ġfeel": 1120,
  "Ġresult": 1121,
  "Ġlot": 1122,
  "Ġfun": 1123,
  "ote": 1124,
  "erest": 1125,
  "Ġusing": 1126,
  "Ġbig": 1127,
  "Ġask": 1128,
  "Ġbest": 1129,
  "Ġ)": 1130,
  "IN": 1131,
  "30": 1132,
  "Ġnumber": 1133,
  "iness": 1134,
  "St": 1135,
  "lease": 1136,
  "Ġca": 1137,
  "Ġmust": 1138,
  "Ġdirect": 1139,
  "Ġgl": 1140,
  "Ġ<": 1141,
  "Ġopen": 1142,
  "Ġpost": 1143,
  "Ġcome": 1144,
  "Ġseem": 1145,
  "ording": 1146,
  "Ġweek": 1147,
  "ately": 1148,
  "ital": 1149,
  "Ġel": 1150,
  "riend": 1151,
  "Ġfar": 1152,
  "Ġtra": 1153,
  "inal": 1154,
  "Ġpri": 1155,
  "ĠUS": 1156,
  "Ġplace": 1157,
  "Ġform": 1158,
  "Ġtold": 1159,
  "\":": 1160,
  "ains": 1161,
  "ĠTrump": 1162,
  "Ġstand": 1163,
  "Ġ#": 1164,
  "ider": 1165,
  "ĠFr": 1166,
  "Ġnext": 1167,
  "Ġsoc": 1168,
  "Ġpur": 1169,
  "Ġlet": 1170,
  "Ġlittle": 1171,
  "Ġhum": 1172,
  "Ġi": 1173,
  "ron": 1174,
  "15": 1175,
  "Ġ15": 1176,
  "Ġmark": 1177,
  "ĠThere": 1178,
  "Ġwr": 1179,
  "ĠThat": 1180,
  "Ġinformation": 1181,
  "ways": 1182,
  "Ġbus": 1183,
  "app": 1184,
  "Ġinvest": 1185,
  "me": 1186,
  "Ġhard": 1187,
  "ained": 1188,
  "ead": 1189,
  "Ġappro": 1190,
  "Ġtest": 1191,
  "Ġtri": 1192,
  "Ġrest": 1193,
  "osed": 1194,
  "Ġfull": 1195,
  "Ġcare": 1196,
  "ĠSp": 1197,
  "Ġcase": 1198,
  "ON": 1199,
  "Ġsk": 1200,
  "Ġless": 1201,
  "Ġ+": 1202,
  "ĠPl": 1203,
  "ably": 1204,
  "uck": 1205,
  "ished": 1206,
  "chn": 1207,
  "be": 1208,
  "Ġlist": 1209,
  "ator": 1210,
  "Ġtop": 1211,
  "Ġadv": 1212,
  "ĠBe": 1213,
  "ruct": 1214,
  "Ġdem": 1215,
  "ration": 1216,
  "ling": 1217,
  "gy": 1218,
  "reen": 1219,
  "ger": 1220,
  "Ġhome": 1221,
  "Ġleft": 1222,
  "Ġbetter": 1223,
  "Ġdata": 1224,
  "Ġ11": 1225,
  "Ġattack": 1226,
  "line": 1227,
  "ards": 1228,
  "Ġbeh": 1229,
  "ral": 1230,
  "ĠHow": 1231,
  "ĠShe": 1232,
  "arge": 1233,
  "Ġ--": 1234,
  "://": 1235,
  "Ġbro": 1236,
  "ĠPh": 1237,
  "ats": 1238,
  "Ġbuild": 1239,
  "ww": 1240,
  "ided": 1241,
  "aim": 1242,
  "ases": 1243,
  "ency": 1244,
  "Ġmain": 1245,
  "ined": 1246,
  "Ġincluding": 1247,
  "Ġgot": 1248,
  "Ġinterest": 1249,
  "Ġkeep": 1250,
  "ĠX": 1251,
  "Ġeas": 1252,
  "aining": 1253,
  "Ġclass": 1254,
  "âĢ¦": 1255,
  "ĠNo": 1256,
  "Ġvar": 1257,
  "Ġsmall": 1258,
  "ample": 1259,
  "AT": 1260,
  "ĠSo": 1261,
  "Ġrece": 1262,
  "Ġpolit": 1263,
  "Ġmov": 1264,
  "Ġplan": 1265,
  "Ġpercent": 1266,
  "iving": 1267,
  "Ġcamp": 1268,
  "Ġpay": 1269,
  "14": 1270,
  "sc": 1271,
  "ised": 1272,
  "Ġunt": 1273,
  "oney": 1274,
  "====": 1275,
  "Ġdidn": 1276,
  "ĠInd": 1277,
  "els": 1278,
  "ertain": 1279,
  "Ġpos": 1280,
  "____": 1281,
  "iver": 1282,
  "Ġprocess": 1283,
  "Ġprogram": 1284,
  "ified": 1285,
  "ĠRep": 1286,
  "16": 1287,
  "uro": 1288,
  "ology": 1289,
  "atter": 1290,
  "ina": 1291,
  "Ġname": 1292,
  "ĠAll": 1293,
  "Ġfour": 1294,
  "Ġreturn": 1295,
  "vious": 1296,
  "bs": 1297,
  "Ġcalled": 1298,
  "Ġmove": 1299,
  "ĠSc": 1300,
  "ird": 1301,
  "Ġgroup": 1302,
  "Ġbre": 1303,
  "Ġmen": 1304,
  "Ġcap": 1305,
  "ten": 1306,
  "ee": 1307,
  "Ġdri": 1308,
  "leg": 1309,
  "here": 1310,
  "Ġpat": 1311,
  "Ġcurrent": 1312,
  "ides": 1313,
  "Ġpop": 1314,
  "to": 1315,
  "ention": 1316,
  "Ġalways": 1317,
  "Ġmil": 1318,
  "Ġwomen": 1319,
  "Ġ16": 1320,
  "Ġold": 1321,
  "iven": 1322,
  "ĠOr": 1323,
  "ror": 1324,
  "ently": 1325,
  "Ġnear": 1326,
  "ĠEx": 1327,
  "ream": 1328,
  "sh": 1329,
  "Ġ14": 1330,
  "Ġfree": 1331,
  "stand": 1332,
  "ĠCon": 1333,
  "ality": 1334,
  "used": 1335,
  "13": 1336,
  "Ġdesign": 1337,
  "Ġchange": 1338,
  "Ġchang": 1339,
  "Ġbo": 1340,
  "Ġvis": 1341,
  "Ġbook": 1342,
  "ready": 1343,
  "Ġkill": 1344,
  "25": 1345,
  "pped": 1346,
  "Ġaway": 1347,
  "Ġable": 1348,
  "Ġcountry": 1349,
  "Ġconst": 1350,
  "arn": 1351,
  "Ġorder": 1352,
  "AR": 1353,
  "ior": 1354,
  "ium": 1355,
  "orth": 1356,
  "18": 1357,
  "Ġsw": 1358,
  "Ġmillion": 1359,
  "Ġ13": 1360,
  "atic": 1361,
  "ted": 1362,
  "ĠGo": 1363,
  "Ġoper": 1364,
  "eng": 1365,
  "Ġthing": 1366,
  "ĠComm": 1367,
  "Ġwhy": 1368,
  "ured": 1369,
  "ural": 1370,
  "Ġschool": 1371,
  "by": 1372,
  "ĠMar": 1373,
  "Ġaff": 1374,
  "Ġdays": 1375,
  "Ġann": 1376,
  "ush": 1377,
  "ane": 1378,
  "If": 1379,
  "eg": 1380,
  "Ġprof": 1381,
  "Ġhealth": 1382,
  "outh": 1383,
  "But": 1384,
  ".,": 1385,
  "Ġsol": 1386,
  "Ġalready": 1387,
  "Ġ30": 1388,
  "He": 1389,
  "Ġfriend": 1390,
  "ES": 1391,
  "ians": 1392,
  "icle": 1393,
  "'d": 1394,
  "ĠOn": 1395,
  "Ġleast": 1396,
  "Ġprom": 1397,
  "Ġdr": 1398,
  "Ġhist": 1399,
  "ither": 1400,
  "Ġest": 1401,
  "iqu": 1402,
  "son": 1403,
  "Ġtell": 1404,
  "Ġtalk": 1405,
  "oint": 1406,
  "lection": 1407,
  "AN": 1408,
  "Ġuntil": 1409,
  "augh": 1410,
  "Ġlater": 1411,
  "Ġve": 1412,
  "Ġview": 1413,
  "ending": 1414,
  "ived": 1415,
  "Ġword": 1416,
  "ware": 1417,
  "Ġcost": 1418,
  "Ġenough": 1419,
  "Ġgive": 1420,
  "ĠUnited": 1421,
  "Ġtechn": 1422,
  "OR": 1423,
  "Ġpar": 1424,
  "ĠDr": 1425,
  "rist": 1426,
  "ering": 1427,
  "ĠÂ": 1428,
  "Ġlarge": 1429,
  "side": 1430,
  "acy": 1431,
  "Ġwin": 1432,
  "Ġimportant": 1433,
  "Ġdoesn": 1434,
  "Ġ17": 1435,
  "Ġbusiness": 1436,
  "Ġclear": 1437,
  "\",": 1438,
  "ury": 1439,
  "Ġequ": 1440,
  "aster": 1441,
  "alf": 1442,
  "ĠAmerican": 1443,
  "Ġexpect": 1444,
  "iversity": 1445,
  "Ġocc": 1446,
  "ĠFl": 1447,
  "Ġkind": 1448,
  "Ġmean": 1449,
  "Ġpast": 1450,
  "Ġdev": 1451,
  "Ġbas": 1452,
  "let": 1453,
  "raft": 1454,
  "Ġorgan": 1455,
  "Ġdel": 1456,
  "Ġperform": 1457,
  "Ġstory": 1458,
  "Ġseason": 1459,
  "ĠCol": 1460,
  "Ġclaim": 1461,
  "Ġcame": 1462,
  "Ġwithin": 1463,
  "Ġline": 1464,
  "Ġproject": 1465,
  "ĠAt": 1466,
  "Ġcontrol": 1467,
  "ended": 1468,
  "ĠSy": 1469,
  "Ġair": 1470,
  "ization": 1471,
  "Ġ*": 1472,
  "ley": 1473,
  "Ġmoney": 1474,
  "idd": 1475,
  "You": 1476,
  "for": 1477,
  "Ġfamily": 1478,
  "Ġmaking": 1479,
  "Ġbit": 1480,
  "Ġpolice": 1481,
  "Ġhappen": 1482,
  "ony": 1483,
  "uff": 1484,
  "ĠWhen": 1485,
  "Ġsit": 1486,
  "lf": 1487,
  "ison": 1488,
  "Ġsure": 1489,
  "gin": 1490,
  "Ġappear": 1491,
  "Ġlight": 1492,
  "Ġes": 1493,
  "of": 1494,
  "Ġwater": 1495,
  "Ġtimes": 1496,
  "not": 1497,
  "Ġgrow": 1498,
  "Ġcompany": 1499,
  "ĠTe": 1500,
  "ows": 1501,
  "Ġmar": 1502,
  "iol": 1503,
  "arm": 1504,
  "br": 1505,
  "Ġexample": 1506,
  "Ġconc": 1507,
  "Ġfore": 1508,
  "ĠTo": 1509,
  "pro": 1510,
  "EN": 1511,
  "ries": 1512,
  "Ġ25": 1513,
  "ĠCan": 1514,
  "ney": 1515,
  "Ġactually": 1516,
  "Ġever": 1517,
  "aken": 1518,
  "aps": 1519,
  "Ġtax": 1520,
  "Ġmajor": 1521,
  "ama": 1522,
  "Ġoften": 1523,
  "eral": 1524,
  "Ġhuman": 1525,
  "Ġjob": 1526,
  "ister": 1527,
  "Ġavailable": 1528,
  "ocr": 1529,
  "enn": 1530,
  "aid": 1531,
  "ivid": 1532,
  "Ġrecord": 1533,
  "?\"": 1534,
  "Ġsing": 1535,
  "ĠAm": 1536,
  "idence": 1537,
  "Ġnews": 1538,
  "ster": 1539,
  "Ġeconom": 1540,
  "Ġfollowing": 1541,
  "ĠBr": 1542,
  "ising": 1543,
  "Ġhour": 1544,
  "most": 1545,
  "Ġdesc": 1546,
  "Ġbecome": 1547,
  "ĠEd": 1548,
  "Ġtook": 1549,
  "Ġhaving": 1550,
  "Ġproduct": 1551,
  "ault": 1552,
  "As": 1553,
  "aring": 1554,
  "Ġmeans": 1555,
  "Ġhop": 1556,
  "une": 1557,
  "Ġcho": 1558,
  "Ġcertain": 1559,
  "Ġnon": 1560,
  "Ġdeal": 1561,
  "lement": 1562,
  "ene": 1563,
  "Ġside": 1564,
  "ĠPr": 1565,
  "ĠMay": 1566,
  "Ġreason": 1567,
  "ued": 1568,
  "ched": 1569,
  "Ġelect": 1570,
  "Ġofficial": 1571,
  "Ġpossible": 1572,
  "Ġhold": 1573,
  "ands": 1574,
  "ots": 1575,
  "Ġcity": 1576,
  "ories": 1577,
  "Ġchildren": 1578,
  "Ġonce": 1579,
  "ler": 1580,
  "Ġnight": 1581,
  "itions": 1582,
  "ĠJohn": 1583,
  "ape": 1584,
  "play": 1585,
  "Ġdone": 1586,
  "Ġlim": 1587,
  "Ġworking": 1588,
  "ĠPres": 1589,
  "eb": 1590,
  "ĠCo": 1591,
  "Ġbody": 1592,
  "ails": 1593,
  "utes": 1594,
  "ĠMr": 1595,
  "Ġwhether": 1596,
  "Ġauthor": 1597,
  "rop": 1598,
  "Ġproper": 1599,
  "Ġseen": 1600,
  "Ġfac": 1601,
  "ĠSu": 1602,
  "Ġcond": 1603,
  "iting": 1604,
  "Ġcourse": 1605,
  "Ġevent": 1606,
  "Ġeng": 1607,
  "Ġpot": 1608,
  "iam": 1609,
  "Ġshort": 1610,
  "empt": 1611,
  "ĠGod": 1612,
  "ilar": 1613,
  "Ġorig": 1614,
  "IS": 1615,
  "ourn": 1616,
  "ability": 1617,
  "itive": 1618,
  "Ġdam": 1619,
  "Ġ100": 1620,
  "Ġpress": 1621,
  "Ġdoing": 1622,
  "Ġprotect": 1623,
  "ring": 1624,
  "Ġthought": 1625,
  "Ġquestion": 1626,
  "rew": 1627,
  "ĠWar": 1628,
  "Ġseveral": 1629,
  "ĠState": 1630,
  "Ġgiven": 1631,
  "Ġfund": 1632,
  "ĠTw": 1633,
  "Ġwent": 1634,
  "ances": 1635,
  "work": 1636,
  "por": 1637,
  "my": 1638,
  "Ġarg": 1639,
  "Ġpolic": 1640,
  "Ġmeet": 1641,
  "Ġcreat": 1642,
  "ĠStates": 1643,
  "Ġgames": 1644,
  "raw": 1645,
  "Ġunderstand": 1646,
  "urs": 1647,
  "ĠOb": 1648,
  "lish": 1649,
  "sy": 1650,
  "Ġmakes": 1651,
  "Ġwon": 1652,
  "agon": 1653,
  "Ġlove": 1654,
  "Ġcomplete": 1655,
  "par": 1656,
  "ĠIm": 1657,
  "AL": 1658,
  "Ġaccount": 1659,
  "Âł": 1660,
  "ored": 1661,
  "Ġothers": 1662,
  "ĠMin": 1663,
  "iber": 1664,
  "There": 1665,
  "dd": 1666,
  "Ġprob": 1667,
  "Ġyoung": 1668,
  "Ġalong": 1669,
  "Ġaccording": 1670,
  "Ġyet": 1671,
  "Ġmembers": 1672,
  "ĠWhat": 1673,
  "oid": 1674,
  "ĠMan": 1675,
  "And": 1676,
  "Ġamong": 1677,
  "ai": 1678,
  "ĠRes": 1679,
  "Ġlow": 1680,
  "af": 1681,
  "ĠCar": 1682,
  "ĠOne": 1683,
  "ination": 1684,
  "Ġlikely": 1685,
  "Ġant": 1686,
  "aged": 1687,
  "ĠRuss": 1688,
  "Ġben": 1689,
  "For": 1690,
  "back": 1691,
  "ĠNot": 1692,
  "Ġpresident": 1693,
  "ball": 1694,
  "Ġaccess": 1695,
  "ĠDem": 1696,
  "Ġknown": 1697,
  "irl": 1698,
  "ĠGr": 1699,
  "Ġearly": 1700,
  "use": 1701,
  "âĢĵ": 1702,
  "Ġfight": 1703,
  "Ġsent": 1704,
  "Ġtoday": 1705,
  "Ġmarket": 1706,
  "\".": 1707,
  "Ġbased": 1708,
  "Ġstrong": 1709,
  "Ġdeb": 1710,
  "mber": 1711,
  "Ġproblem": 1712,
  "Ġdeath": 1713,
  "Ġsocial": 1714,
  "imate": 1715,
  "AS": 1716,
  "ortun": 1717,
  "Ġcampaign": 1718,
  "ery": 1719,
  "Ch": 1720,
  "Ġey": 1721,
  "ially": 1722,
  "Ġmus": 1723,
  "wh": 1724,
  "pos": 1725,
  "Ġer": 1726,
  "Ġsaf": 1727,
  "Ġmonths": 1728,
  "iron": 1729,
  "Ġviol": 1730,
  "Ġfive": 1731,
  "Ġstre": 1732,
  "Ġplayers": 1733,
  "inc": 1734,
  "ald": 1735,
  "year": 1736,
  "aun": 1737,
  "Ġsuccess": 1738,
  "Ġpresent": 1739,
  "erence": 1740,
  "Ġsugg": 1741,
  "Ġparticular": 1742,
  "Ġtry": 1743,
  "Ġsuggest": 1744,
  "ĠChrist": 1745,
  "ones": 1746,
  "Ġcrit": 1747,
  "Ġland": 1748,
  "Ġlocal": 1749,
  "ify": 1750,
  "Ġaut": 1751,
  "ED": 1752,
  "ĠGu": 1753,
  "Ġmult": 1754,
  "Ġasked": 1755,
  "Ġformer": 1756,
  "itter": 1757,
  "Ġclose": 1758,
  "Ġpract": 1759,
  "ĠYork": 1760,
  "Ġgetting": 1761,
  "Ġacross": 1762,
  "Ġcomb": 1763,
  "Ġbelieve": 1764,
  "Ġz": 1765,
  "Ġtoget": 1766,
  "Ġtogether": 1767,
  "ĠCent": 1768,
  "irc": 1769,
  "Ġindividual": 1770,
  "ĠMc": 1771,
  "27": 1772,
  "isk": 1773,
  "ĠEng": 1774,
  "Ġface": 1775,
  "Ġ24": 1776,
  "Ġvalue": 1777,
  "Ġarea": 1778,
  "ev": 1779,
  "Ġwrit": 1780,
  "ĠPresident": 1781,
  "Ġkey": 1782,
  "Ġmom": 1783,
  "put": 1784,
  "Ġanything": 1785,
  "Ġexperience": 1786,
  "attle": 1787,
  "Ġmind": 1788,
  "aff": 1789,
  "omm": 1790,
  "Ġfuture": 1791,
  "ged": 1792,
  "Ġcut": 1793,
  "Ġtot": 1794,
  "itch": 1795,
  "Ġvideo": 1796,
  "Ġnet": 1797,
  "ĠMy": 1798,
  "rict": 1799,
  "ien": 1800,
  ".)": 1801,
  "though": 1802,
  "wards": 1803,
  "Ġconnect": 1804,
  "ĠMed": 1805,
  "ensive": 1806,
  "mb": 1807,
  "ober": 1808,
  "ators": 1809,
  "An": 1810,
  "Ġ50": 1811,
  "Ġabove": 1812,
  "Ġfre": 1813,
  "ĠEurope": 1814,
  "sw": 1815,
  "Ġamount": 1816,
  "ĠApp": 1817,
  "Ġeither": 1818,
  "Ġfail": 1819,
  "ĠEn": 1820,
  "ales": 1821,
  "Ġspecial": 1822,
  "Ġblack": 1823,
  "IT": 1824,
  "cher": 1825,
  "Ġlooking": 1826,
  "Ġfire": 1827,
  "yn": 1828,
  "Ġalmost": 1829,
  "oon": 1830,
  "Ġstudy": 1831,
  "Ġmiss": 1832,
  "ches": 1833,
  "rown": 1834,
  "Ġtre": 1835,
  "Ġcommunity": 1836,
  "Ġmedia": 1837,
  "Ġfood": 1838,
  "Ġcomes": 1839,
  "ĠUniversity": 1840,
  "Ġsingle": 1841,
  "What": 1842,
  "uly": 1843,
  "Ġhalf": 1844,
  "ague": 1845,
  "hod": 1846,
  "Ġstarted": 1847,
  "Ġquick": 1848,
  "oto": 1849,
  "book": 1850,
  "Ġissue": 1851,
  "itor": 1852,
  "Ġelse": 1853,
  "Ġconsider": 1854,
  "Ġtaken": 1855,
  "99": 1856,
  "ĠWith": 1857,
  "Ġtrue": 1858,
  "Ġwa": 1859,
  "Ġago": 1860,
  "Ġmess": 1861,
  "ief": 1862,
  "Ġadded": 1863,
  "oke": 1864,
  "Ġbad": 1865,
  "Ġfav": 1866,
  "Ġsimilar": 1867,
  "ask": 1868,
  "ĠDon": 1869,
  "Ġcharacter": 1870,
  "orts": 1871,
  "ĠHouse": 1872,
  "Ġreported": 1873,
  "Ġtype": 1874,
  "val": 1875,
  "iod": 1876,
  "ĠHowever": 1877,
  "Ġentire": 1878,
  "pping": 1879,
  "Ġhistory": 1880,
  "Ġlive": 1881,
  "ffic": 1882,
  "Ġtrying": 1883,
  "Ġdiscuss": 1884,
  "ĠHar": 1885,
  "aces": 1886,
  "Ġself": 1887,
  "osp": 1888,
  "rest": 1889,
  "Ġroom": 1890,
  "elt": 1891,
  "Ġfall": 1892,
  "Ġet": 1893,
  "Ġx": 1894,
  "Ġisn": 1895,
  "Ġidea": 1896,
  "bo": 1897,
  "Ġsound": 1898,
  "ĠDep": 1899,
  "Ġsomeone": 1900,
  "cially": 1901,
  "ully": 1902,
  "Ġfoc": 1903,
  "Ġobject": 1904,
  "ift": 1905,
  "aper": 1906,
  "Ġplayer": 1907,
  "Ġrather": 1908,
  "Ġservice": 1909,
  "ashing": 1910,
  "ĠDo": 1911,
  "ĠPart": 1912,
  "rug": 1913,
  "mon": 1914,
  "ply": 1915,
  "Ġmor": 1916,
  "Ġnothing": 1917,
  "Ġprovide": 1918,
  "IC": 1919,
  "ung": 1920,
  "Ġparty": 1921,
  "Ġexist": 1922,
  "Ġmag": 1923,
  "Ġhouse": 1924,
  "Ġbehind": 1925,
  "Ġhowever": 1926,
  "ĠWorld": 1927,
  "Ġsum": 1928,
  "Ġfunction": 1929,
  "gr": 1930,
  "ĠPol": 1931,
  "Ġfront": 1932,
  "200": 1933,
  "Ġseries": 1934,
  "Ġtem": 1935,
  "ills": 1936,
  "Ġopt": 1937,
  "Ġpoints": 1938,
  "Ġbelow": 1939,
  "itted": 1940,
  "Ġspecific": 1941,
  "umb": 1942,
  "Ġra": 1943,
  "Ġprevious": 1944,
  "Ġpret": 1945,
  "reme": 1946,
  "Ġcustom": 1947,
  "Ġcourt": 1948,
  "ĠMe": 1949,
  "Ġrepl": 1950,
  "Ġwhole": 1951,
  "go": 1952,
  "cer": 1953,
  "Ġtreat": 1954,
  "ĠAct": 1955,
  "Ġprobably": 1956,
  "Ġlearn": 1957,
  "ender": 1958,
  "Ġversion": 1959,
  "now": 1960,
  "Ġcheck": 1961,
  "ĠCal": 1962,
  "RE": 1963,
  "On": 1964,
  "Ġbenef": 1965,
  "Ġdoc": 1966,
  "Ġdeter": 1967,
  "Ġenc": 1968,
  "Ġsuper": 1969,
  "Ġaddress": 1970,
  "Ġvict": 1971,
  "Ġ2013": 1972,
  "Ġmeas": 1973,
  "tr": 1974,
  "Ġfield": 1975,
  "When": 1976,
  "uge": 1977,
  "Ġfeat": 1978,
  "Ġcommon": 1979,
  "load": 1980,
  "Ġbegin": 1981,
  "Ġbring": 1982,
  "Ġaction": 1983,
  "erman": 1984,
  "Ġindust": 1985,
  "Ġwanted": 1986,
  "ried": 1987,
  "ming": 1988,
  "Ġattempt": 1989,
  "45": 1990,
  "fer": 1991,
  "Ġdue": 1992,
  "##": 1993,
  "Ġshall": 1994,
  "Ġsix": 1995,
  "oo": 1996,
  "Ġstep": 1997,
  "Ġpub": 1998,
  "Ġhimself": 1999,
  "Ġ23": 2000,
  "Ġcop": 2001,
  "Ġdest": 2002,
  "Ġstop": 2003,
  "AC": 2004,
  "ibility": 2005,
  "Ġlab": 2006,
  "icult": 2007,
  "Ġhours": 2008,
  "Ġcreate": 2009,
  "Ġfurther": 2010,
  "ĠAmerica": 2011,
  "ĠCity": 2012,
  "Ġdou": 2013,
  "head": 2014,
  "ST": 2015,
  "ĠNorth": 2016,
  "cing": 2017,
  "Ġnational": 2018,
  "ule": 2019,
  "ĠInst": 2020,
  "Ġtaking": 2021,
  "ĠQu": 2022,
  "irt": 2023,
  "Ġred": 2024,
  "Ġresearch": 2025,
  "ĠGe": 2026,
  "Ġbreak": 2027,
  "ana": 2028,
  "Ġspace": 2029,
  "Ġrecent": 2030,
  "ĠAb": 2031,
  "Ġgeneral": 2032,
  "Ġhit": 2033,
  "Ġperiod": 2034,
  "Ġeverything": 2035,
  "ively": 2036,
  "Ġsaying": 2037,
  "anks": 2038,
  "Ġcou": 2039,
  "aced": 2040,
  "eal": 2041,
  "Ġcoun": 2042,
  "lu": 2043,
  "Ġinclude": 2044,
  "Ġposition": 2045,
  "ĠAfter": 2046,
  "ĠEm": 2047,
  "Ġimm": 2048,
  "ĠRed": 2049,
  "Ġpick": 2050,
  "Ġcompl": 2051,
  "Ġmatter": 2052,
  "reg": 2053,
  "isc": 2054,
  "ole": 2055,
  "aut": 2056,
  "Ġcompet": 2057,
  "eed": 2058,
  "fect": 2059,
  "Ġ21": 2060,
  "ĠSen": 2061,
  "ĠThese": 2062,
  "asing": 2063,
  "Ġcannot": 2064,
  "ached": 2065,
  "Ġbar": 2066,
  "Ġ40": 2067,
  "ĠTH": 2068,
  "Ġground": 2069,
  "Ġsecurity": 2070,
  "ilt": 2071,
  "35": 2072,
  "Ġconcern": 2073,
  "ĠJust": 2074,
  "Ġwhite": 2075,
  "Ġseems": 2076,
  "ĠHer": 2077,
  "pecially": 2078,
  "ients": 2079,
  "Ġannoun": 2080,
  "Ġfig": 2081,
  "ights": 2082,
  "Ġstri": 2083,
  "like": 2084,
  "ids": 2085,
  "Ġsus": 2086,
  "Ġwatch": 2087,
  "Ġwind": 2088,
  "Ġitself": 2089,
  "Ġmass": 2090,
  "Al": 2091,
  "yle": 2092,
  "ique": 2093,
  "ĠNational": 2094,
  "Ġpack": 2095,
  "Ġoutside": 2096,
  "Ġanim": 2097,
  "Ġpain": 2098,
  "eter": 2099,
  "ogn": 2100,
  "sec": 2101,
  "off": 2102,
  "ĠJan": 2103,
  "Ġfoot": 2104,
  "ades": 2105,
  "Ġthird": 2106,
  "Ġmot": 2107,
  "Ġevidence": 2108,
  "inton": 2109,
  "Ġthreat": 2110,
  "apt": 2111,
  "ples": 2112,
  "cle": 2113,
  "Ġlo": 2114,
  "Ġdecl": 2115,
  "Ġitem": 2116,
  "Ġrepresent": 2117,
  "omb": 2118,
  "amer": 2119,
  "Ġsignificant": 2120,
  "ograph": 2121,
  "su": 2122,
  "Ġcal": 2123,
  "ires": 2124,
  "ID": 2125,
  "AM": 2126,
  "Ġsimply": 2127,
  "Ġlonger": 2128,
  "Ġfile": 2129,
  "OT": 2130,
  "che": 2131,
  "So": 2132,
  "org": 2133,
  "ĠHis": 2134,
  "Ġener": 2135,
  "Ġdom": 2136,
  "Ġupon": 2137,
  "ili": 2138,
  "Ġthemselves": 2139,
  "Ġcoming": 2140,
  "Ġquite": 2141,
  "Ġdifficult": 2142,
  "ĠBar": 2143,
  "rel": 2144,
  "ends": 2145,
  "cial": 2146,
  "Ġwoman": 2147,
  "rap": 2148,
  "yr": 2149,
  "ips": 2150,
  "Ġtext": 2151,
  "Ġrequire": 2152,
  "Ġmilitary": 2153,
  "Ġreview": 2154,
  "Ġrespons": 2155,
  "75": 2156,
  "Ġsubject": 2157,
  "Ġinstead": 2158,
  "Ġissues": 2159,
  "Ġgen": 2160,
  "\",\"": 2161,
  "Ġminutes": 2162,
  "Ġweap": 2163,
  "ray": 2164,
  "amed": 2165,
  "time": 2166,
  "bl": 2167,
  "How": 2168,
  "Ġcode": 2169,
  "ĠSm": 2170,
  "Ġhigher": 2171,
  "ĠSte": 2172,
  "ris": 2173,
  "Ġpage": 2174,
  "Ġstudents": 2175,
  "Ġmethod": 2176,
  "ĠAug": 2177,
  "ĠPer": 2178,
  "ĠAg": 2179,
  "Ġpolicy": 2180,
  "ĠSw": 2181,
  "Ġaccept": 2182,
  "ume": 2183,
  "Ġwords": 2184,
  "Ġfinal": 2185,
  "Ġchanges": 2186,
  "Ġfriends": 2187,
  "Ġrespect": 2188,
  "Ġep": 2189,
  "Ġdamage": 2190,
  "****": 2191,
  "Ġneg": 2192,
  "Ġap": 2193,
  "Ġtotal": 2194,
  "ival": 2195,
  "!\"": 2196,
  "lim": 2197,
  "Ġneeds": 2198,
  "Ġdevelopment": 2199,
  "Ġage": 2200,
  "21": 2201,
  "Ġresults": 2202,
  "ĠAf": 2203,
  "Sh": 2204,
  "Ġgun": 2205,
  "roll": 2206,
  "Ġ@": 2207,
  "Ġrights": 2208,
  "ĠBrit": 2209,
  "Ġrunning": 2210,
  "Ġwasn": 2211,
  "Ġport": 2212,
  "Ġrate": 2213,
  "Ġpretty": 2214,
  "Ġtarget": 2215,
  "Ġsaw": 2216,
  "Ġcirc": 2217,
  "Ġworks": 2218,
  "alt": 2219,
  "over": 2220,
  "www": 2221,
  "That": 2222,
  "lier": 2223,
  "Ġeveryone": 2224,
  "ude": 2225,
  "Ġpie": 2226,
  "iddle": 2227,
  "Ġrad": 2228,
  "Ġblock": 2229,
  "Ġwalk": 2230,
  "To": 2231,
  "nes": 2232,
  "ĠAust": 2233,
  "aul": 2234,
  "ĠSouth": 2235,
  "oph": 2236,
  "Ġshows": 2237,
  "Ġsite": 2238,
  "Ġjo": 2239,
  "Ġrisk": 2240,
  "lt": 2241,
  "iding": 2242,
  "ĠSpe": 2243,
  "irm": 2244,
  "Ġ22": 2245,
  "itting": 2246,
  "str": 2247,
  "Ġhy": 2248,
  "LE": 2249,
  "key": 2250,
  "Ġbegan": 2251,
  "lam": 2252,
  "ĠDav": 2253,
  "bit": 2254,
  "Ġsize": 2255,
  "ĠPar": 2256,
  "face": 2257,
  "Ġdecision": 2258,
  "Ġlarg": 2259,
  "Ġjud": 2260,
  "rect": 2261,
  "Ġcontinue": 2262,
  "ĠOct": 2263,
  "overed": 2264,
  "ĠInt": 2265,
  "Ġparent": 2266,
  "ĠWill": 2267,
  "Ġeasy": 2268,
  "Ġdrug": 2269,
  "anger": 2270,
  "Ġsense": 2271,
  "Ġdi": 2272,
  "iday": 2273,
  "Ġenergy": 2274,
  "istic": 2275,
  "arter": 2276,
  "eks": 2277,
  "ĠEl": 2278,
  "urch": 2279,
  "Ġgirl": 2280,
  "oe": 2281,
  "itle": 2282,
  "Ġ28": 2283,
  "ĠChe": 2284,
  "Ġrequest": 2285,
  "Ġsoon": 2286,
  "Ġhost": 2287,
  "ky": 2288,
  "Ġstates": 2289,
  "omes": 2290,
  "Ġmaterial": 2291,
  "lex": 2292,
  "Ġmoment": 2293,
  "Ġansw": 2294,
  "onse": 2295,
  "Ġespecially": 2296,
  "Ġnorm": 2297,
  "Ġservices": 2298,
  "pite": 2299,
  "ran": 2300,
  "Ġrole": 2301,
  "):": 2302,
  "Cl": 2303,
  "Ġmat": 2304,
  "Ġlog": 2305,
  "ĠClinton": 2306,
  "OU": 2307,
  "Ġoffice": 2308,
  "Ġcharg": 2309,
  "Ġtrack": 2310,
  "ma": 2311,
  "Ġheart": 2312,
  "Ġball": 2313,
  "Ġpersonal": 2314,
  "Ġbuilding": 2315,
  "na": 2316,
  "set": 2317,
  "body": 2318,
  "ĠBlack": 2319,
  "Ġincrease": 2320,
  "itten": 2321,
  "Ġneeded": 2322,
  "36": 2323,
  "Ġlost": 2324,
  "Ġbecame": 2325,
  "Ġgroups": 2326,
  "ĠMus": 2327,
  "Ġwrote": 2328,
  "ĠPe": 2329,
  "Ġprop": 2330,
  "joy": 2331,
  "Ã©": 2332,
  "ĠWhite": 2333,
  "Ġdead": 2334,
  ".'": 2335,
  "Ġhttp": 2336,
  "Ġwebs": 2337,
  "OS": 2338,
  "Ġinside": 2339,
  "Ġwrong": 2340,
  "Ġstatement": 2341,
  "Ġ...": 2342,
  "yl": 2343,
  "Ġfilm": 2344,
  "Ġmusic": 2345,
  "Ġshare": 2346,
  "Ġrelease": 2347,
  "Ġforward": 2348,
  "Ġstay": 2349,
  "itte": 2350,
  "ser": 2351,
  "Ġoriginal": 2352,
  "Ġcard": 2353,
  "Ġcand": 2354,
  "Ġdiv": 2355,
  "Ġfavor": 2356,
  "OM": 2357,
  "Ġcases": 2358,
  "uses": 2359,
  "Ġsection": 2360,
  "Ġleave": 2361,
  "ging": 2362,
  "oved": 2363,
  "ĠWashington": 2364,
  "ĠGl": 2365,
  "Ġrequired": 2366,
  "action": 2367,
  "oor": 2368,
  "iter": 2369,
  "ĠKing": 2370,
  "Ġcountries": 2371,
  "ĠGerman": 2372,
  "lling": 2373,
  "Ġ27": 2374,
  "34": 2375,
  "Ġquestions": 2376,
  "Ġprim": 2377,
  "Ġcell": 2378,
  "Ġshoot": 2379,
  "Ġanyone": 2380,
  "ĠWest": 2381,
  "Ġaffect": 2382,
  "epend": 2383,
  "Ġonline": 2384,
  "ĠSeptember": 2385,
  "Ġability": 2386,
  "Ġcontent": 2387,
  "ises": 2388,
  "Ġreve": 2389,
  "Ġforce": 2390,
  "cast": 2391,
  "Ġsold": 2392,
  "aving": 2393,
  "fl": 2394,
  "Ġsoft": 2395,
  "Ġcompanies": 2396,
  "ceed": 2397,
  "Ġarticle": 2398,
  "Ġaud": 2399,
  "Ġrev": 2400,
  "Ġplaying": 2401,
  "Ġheld": 2402,
  "Ġreleased": 2403,
  "Ġinterview": 2404,
  "Ġinstall": 2405,
  "Ġreceived": 2406,
  "Ġsource": 2407,
  "uk": 2408,
  "Ph": 2409,
  "Ġserious": 2410,
  "Ġcreated": 2411,
  "Ġcause": 2412,
  "Ġimmedi": 2413,
  "Ġdefin": 2414,
  "uel": 2415,
  "ĠDepartment": 2416,
  "ctions": 2417,
  "ĠNow": 2418,
  "ze": 2419,
  "ites": 2420,
  "Ġlate": 2421,
  "Ġspeak": 2422,
  "ners": 2423,
  "Ġlegal": 2424,
  "ari": 2425,
  "ĠCor": 2426,
  "Ġweeks": 2427,
  "Ġmodel": 2428,
  "Ġexact": 2429,
  "ĠBy": 2430,
  "ING": 2431,
  "osing": 2432,
  "Ġtakes": 2433,
  "Ġregard": 2434,
  "Ġprice": 2435,
  "ĠApr": 2436,
  "fully": 2437,
  "Ġord": 2438,
  "Ġproblems": 2439,
  "ham": 2440,
  "ĠCount": 2441,
  "lege": 2442,
  "Ġleaders": 2443,
  "ET": 2444,
  "lev": 2445,
  "Ġdeep": 2446,
  "ological": 2447,
  "ese": 2448,
  "ĠSome": 2449,
  "Ġpers": 2450,
  "Ġcontract": 2451,
  "Ġrelationship": 2452,
  "sp": 2453,
  "oud": 2454,
  "Ġbase": 2455,
  "mit": 2456,
  "Ad": 2457,
  "Ġpotential": 2458,
  "rem": 2459,
  "eth": 2460,
  "ressed": 2461,
  "Ġlink": 2462,
  "Ġlower": 2463,
  "ayer": 2464,
  "ĠJune": 2465,
  "unt": 2466,
  "erc": 2467,
  "urd": 2468,
  "Ġcontact": 2469,
  "Ġill": 2470,
  "Ġmother": 2471,
  "ĠMarch": 2472,
  "ĠBro": 2473,
  "ĠChina": 2474,
  "Ġ29": 2475,
  "Ġsqu": 2476,
  "Ġprovided": 2477,
  "Ġaverage": 2478,
  "asons": 2479,
  "Ġexam": 2480,
  "lin": 2481,
  "55": 2482,
  "ned": 2483,
  "Ġperfect": 2484,
  "Ġtou": 2485,
  "ux": 2486,
  "Ġbuy": 2487,
  "Ġshot": 2488,
  "Ġcollect": 2489,
  "Ġphot": 2490,
  "Ġplayed": 2491,
  "Ġsurpr": 2492,
  "Ġofficials": 2493,
  "Ġsimple": 2494,
  "avy": 2495,
  "Ġindustry": 2496,
  "Ġhands": 2497,
  "ground": 2498,
  "Ġpull": 2499,
  "Ġround": 2500,
  "Ġuser": 2501,
  "Ġrange": 2502,
  "Ġprivate": 2503,
  "ops": 2504,
  "ees": 2505,
  "Ġways": 2506,
  "Ġexcept": 2507,
  "Ġterms": 2508,
  "imum": 2509,
  "pper": 2510,
  "ION": 2511,
  "ores": 2512,
  "ĠDragon": 2513,
  "oul": 2514,
  "Ġden": 2515,
  "Ġperformance": 2516,
  "Ġbill": 2517,
  "cil": 2518,
  "Ġenvironment": 2519,
  "Ġexc": 2520,
  "add": 2521,
  "Ġworth": 2522,
  "Ġpict": 2523,
  "Ġchance": 2524,
  "Ġ2018": 2525,
  "bor": 2526,
  "Ġspeed": 2527,
  "ĠJapan": 2528,
  "atory": 2529,
  "reet": 2530,
  "Ġmatch": 2531,
  "ĠII": 2532,
  "order": 2533,
  "Ġste": 2534,
  "Ġliving": 2535,
  "ino": 2536,
  "Ġsepar": 2537,
  "Ġresponse": 2538,
  "Ġenjoy": 2539,
  "Ġvia": 2540,
  "AD": 2541,
  "Ġmember": 2542,
  "ibr": 2543,
  "izing": 2544,
  "Ġtool": 2545,
  "ĠMon": 2546,
  "ĠWhile": 2547,
  "hood": 2548,
  "ĠAng": 2549,
  "ĠDef": 2550,
  "Ġoffer": 2551,
  "Tr": 2552,
  "aur": 2553,
  "Ġturned": 2554,
  "ĠJuly": 2555,
  "down": 2556,
  "anced": 2557,
  "Ġrecently": 2558,
  "ĠEar": 2559,
  "Ġce": 2560,
  "ĠStar": 2561,
  "ĠCong": 2562,
  "rought": 2563,
  "Ġblood": 2564,
  "Ġhope": 2565,
  "Ġcomment": 2566,
  "aint": 2567,
  "Ġarri": 2568,
  "iles": 2569,
  "ought": 2570,
  "Ġgave": 2571,
  "Ġselect": 2572,
  "Ġkilled": 2573,
  "Ġgoes": 2574,
  "ij": 2575,
  "Ġcoll": 2576,
  "Ġimpact": 2577,
  "ĠSer": 2578,
  "09": 2579,
  "ĠAugust": 2580,
  "Ġboy": 2581,
  "de": 2582,
  "ĠDes": 2583,
  "Ġfelt": 2584,
  "US": 2585,
  "Ġexpected": 2586,
  "Ġimage": 2587,
  "ĠMark": 2588,
  "ĠMag": 2589,
  "ened": 2590,
  "hold": 2591,
  "ĠPost": 2592,
  "Ġprevent": 2593,
  "No": 2594,
  "Ġinvolved": 2595,
  "Ġeyes": 2596,
  "Ġquickly": 2597,
  "At": 2598,
  "unk": 2599,
  "Ġur": 2600,
  "Ġled": 2601,
  "come": 2602,
  "ey": 2603,
  "Ġearlier": 2604,
  "Ġfocus": 2605,
  "ety": 2606,
  "Pro": 2607,
  "ledge": 2608,
  "ixed": 2609,
  "illed": 2610,
  "Ġpopular": 2611,
  "AP": 2612,
  "Ġsett": 2613,
  "light": 2614,
  "Ġvarious": 2615,
  "inks": 2616,
  "Ġlevels": 2617,
  "Ġroad": 2618,
  "ables": 2619,
  "hel": 2620,
  "ĠGener": 2621,
  "Ġheard": 2622,
  "icles": 2623,
  "Ġmis": 2624,
  "Ġusers": 2625,
  "ĠSan": 2626,
  "Ġimprove": 2627,
  "Ġfather": 2628,
  "Ġsearch": 2629,
  "They": 2630,
  "vil": 2631,
  "Ġprofess": 2632,
  "Ġknew": 2633,
  "Ġloss": 2634,
  "Ġevents": 2635,
  "Ġbillion": 2636,
  "ĠNews": 2637,
  "ĠAM": 2638,
  "Ġcover": 2639,
  "where": 2640,
  "Ġbott": 2641,
  "Ġareas": 2642,
  "ences": 2643,
  "ope": 2644,
  "ĠTwitter": 2645,
  "ael": 2646,
  "Ġgets": 2647,
  "Ġsn": 2648,
  "iant": 2649,
  "Ġvote": 2650,
  "Ġnearly": 2651,
  "Ġincluded": 2652,
  "Ġrecogn": 2653,
  "zz": 2654,
  "mm": 2655,
  "aled": 2656,
  "Ġhappened": 2657,
  "Ġhot": 2658,
  "Ġwhose": 2659,
  "Ġcivil": 2660,
  "Ġsuff": 2661,
  "oes": 2662,
  "Ġrespond": 2663,
  "Ġhon": 2664,
  "Ġfeatures": 2665,
  "Ġeconomic": 2666,
  "ĠApril": 2667,
  "rim": 2668,
  "Ġtechnology": 2669,
  "Ġoption": 2670,
  "aging": 2671,
  "Re": 2672,
  "Ġlat": 2673,
  "chie": 2674,
  "isl": 2675,
  "Ġrecomm": 2676,
  "uf": 2677,
  "Ġtraining": 2678,
  "Ġeffects": 2679,
  "Ġfast": 2680,
  "Ġ2010": 2681,
  "Ġoccur": 2682,
  "Ġwebsite": 2683,
  "Ġemail": 2684,
  "Ġsens": 2685,
  "ech": 2686,
  "Ġoil": 2687,
  "Ġcurrently": 2688,
  "ĠSch": 2689,
  "ĠAdd": 2690,
  "Ġgoal": 2691,
  "100": 2692,
  "emy": 2693,
  "Ġdecided": 2694,
  "Ġtravel": 2695,
  "Ġmention": 2696,
  "LL": 2697,
  "Ġelection": 2698,
  "Ġphone": 2699,
  "Ġlooks": 2700,
  "Ġsituation": 2701,
  "Ġcy": 2702,
  "Ġhor": 2703,
  "bed": 2704,
  "ĠCourt": 2705,
  "aily": 2706,
  "aves": 2707,
  "Ġquality": 2708,
  "ĠComp": 2709,
  "wise": 2710,
  "Ġtable": 2711,
  "Ġstaff": 2712,
  "ĠWind": 2713,
  "ett": 2714,
  "Ġtried": 2715,
  "idered": 2716,
  "Ġaddition": 2717,
  "Ġbox": 2718,
  "Ġlack": 2719,
  "arily": 2720,
  "Ġwide": 2721,
  "Ġmid": 2722,
  "Ġboard": 2723,
  "Ġanti": 2724,
  "ha": 2725,
  "Ġdig": 2726,
  "ening": 2727,
  "Ġdro": 2728,
  "Con": 2729,
  "Ġslow": 2730,
  "based": 2731,
  "Ġpath": 2732,
  "Ex": 2733,
  "aker": 2734,
  "Ġworked": 2735,
  "Ġpen": 2736,
  "Ġengine": 2737,
  "Ġlooked": 2738,
  "ĠSuper": 2739,
  "ĠServ": 2740,
  "Ġvictim": 2741,
  "Un": 2742,
  "Ġproperty": 2743,
  "Ġintrodu": 2744,
  "ĠPM": 2745,
  "Le": 2746,
  "Ġcolor": 2747,
  "ĠMore": 2748,
  "Ġ60": 2749,
  "Ġnetwork": 2750,
  "Ġdate": 2751,
  "idge": 2752,
  "Ġextra": 2753,
  "Ġsle": 2754,
  "Ġwond": 2755,
  "Ġreports": 2756,
  "just": 2757,
  "Ġcapital": 2758,
  "Ġens": 2759,
  "Ġcommand": 2760,
  "Ġallowed": 2761,
  "Ġprep": 2762,
  "Ġcapt": 2763,
  "Ġnumbers": 2764,
  "chan": 2765,
  "Ġfair": 2766,
  "mp": 2767,
  "oms": 2768,
  "Ġreach": 2769,
  "With": 2770,
  "tain": 2771,
  "Ġbroad": 2772,
  "Ġcouple": 2773,
  "lying": 2774,
  "Ġscreen": 2775,
  "Ġlives": 2776,
  "Ġprior": 2777,
  "Ar": 2778,
  "Ġapproach": 2779,
  "Ġemer": 2780,
  "aries": 2781,
  "ĠDis": 2782,
  "serv": 2783,
  "ĠNe": 2784,
  "Ġbuilt": 2785,
  "Ġrepe": 2786,
  "Ġrules": 2787,
  "force": 2788,
  "ĠPal": 2789,
  "Ġfinancial": 2790,
  "Ġconsidered": 2791,
  "ĠChar": 2792,
  "ĠIS": 2793,
  "Ġbrought": 2794,
  "Ġbi": 2795,
  "iers": 2796,
  "ĠSim": 2797,
  "OP": 2798,
  "Ġproducts": 2799,
  "Ġvisit": 2800,
  "Ġdocument": 2801,
  "Ġconduct": 2802,
  "Ġcompletely": 2803,
  "ining": 2804,
  "ibly": 2805,
  "Ġwritten": 2806,
  "ĠTV": 2807,
  "ements": 2808,
  "Ġdraw": 2809,
  "One": 2810,
  "Ġpublished": 2811,
  "Ġsecret": 2812,
  "rain": 2813,
  "het": 2814,
  "ĠFacebook": 2815,
  "onday": 2816,
  "ĠUp": 2817,
  "ĠPat": 2818,
  "Ġstandard": 2819,
  "Ġarm": 2820,
  "ges": 2821,
  "ection": 2822,
  "Ġfell": 2823,
  "Ġforeign": 2824,
  "ani": 2825,
  "ĠFriday": 2826,
  "Ġregular": 2827,
  "inary": 2828,
  "Ġincreased": 2829,
  "Ġusually": 2830,
  "Ġdemon": 2831,
  "Ġdark": 2832,
  "Ġadditional": 2833,
  "rol": 2834,
  "ĠOf": 2835,
  "Ġproduction": 2836,
  "!!": 2837,
  "undred": 2838,
  "Ġinternational": 2839,
  "idents": 2840,
  "ĠFree": 2841,
  "Ġrace": 2842,
  "Ġmach": 2843,
  "Ġhuge": 2844,
  "All": 2845,
  "lear": 2846,
  "Ġtown": 2847,
  "Ġattention": 2848,
  "ĠOff": 2849,
  "ĠThen": 2850,
  "field": 2851,
  "Ġterror": 2852,
  "raz": 2853,
  "ĠBo": 2854,
  "Ġmeeting": 2855,
  "ĠPark": 2856,
  "Ġarrest": 2857,
  "Ġfear": 2858,
  "Ġaw": 2859,
  "ĠVal": 2860,
  "oring": 2861,
  "',": 2862,
  "Ġextreme": 2863,
  "arr": 2864,
  "Ġworkers": 2865,
  "After": 2866,
  "Ġ31": 2867,
  "net": 2868,
  "ament": 2869,
  "Ġdirectly": 2870,
  "Ġpopulation": 2871,
  "ube": 2872,
  "ĠOctober": 2873,
  "ĠIN": 2874,
  "ĠJanuary": 2875,
  "ĠDavid": 2876,
  "Ġcross": 2877,
  "ĠFirst": 2878,
  "Ġmessage": 2879,
  "Ġnation": 2880,
  "Ġpoll": 2881,
  "isions": 2882,
  "Ġanswer": 2883,
  "ny": 2884,
  "Ġcarry": 2885,
  "ĠRussia": 2886,
  "Ġhear": 2887,
  "roy": 2888,
  "Ġnatural": 2889,
  "inally": 2890,
  "Ġdog": 2891,
  "mitted": 2892,
  "Ġtrade": 2893,
  "Ġmultiple": 2894,
  "Ġfans": 2895,
  "Ġsort": 2896,
  "Ġglobal": 2897,
  "ication": 2898,
  "ĠWed": 2899,
  "ara": 2900,
  "Ġachie": 2901,
  "Ġlanguage": 2902,
  "vey": 2903,
  "Ġtal": 2904,
  "Ġnecessary": 2905,
  "Ġdetails": 2906,
  "ĠSund": 2907,
  "ĠReg": 2908,
  "ĠRec": 2909,
  "Ġsil": 2910,
  "ressive": 2911,
  "Ġmedical": 2912,
  "unch": 2913,
  "Ġund": 2914,
  "fort": 2915,
  "ocks": 2916,
  "ĠMonday": 2917,
  "craft": 2918,
  "urt": 2919,
  "Ġver": 2920,
  "ĠHill": 2921,
  "Ġreceive": 2922,
  "Ġmorning": 2923,
  "Ġbank": 2924,
  "Ġsat": 2925,
  "ĠHigh": 2926,
  "Ġdevice": 2927,
  "ĠTHE": 2928,
  "ĠCenter": 2929,
  "Ġsafe": 2930,
  "Ġple": 2931,
  "ĠCanada": 2932,
  "Ġassist": 2933,
  "Ġbattle": 2934,
  "ĠSoc": 2935,
  "She": 2936,
  "Ġpaper": 2937,
  "Ġgrowth": 2938,
  "Ġcast": 2939,
  "Sc": 2940,
  "Ġplans": 2941,
  "lled": 2942,
  "Ġparts": 2943,
  "Ġwall": 2944,
  "Ġmovement": 2945,
  "Ġpractice": 2946,
  "Ġdisplay": 2947,
  "Ġsometimes": 2948,
  "omp": 2949,
  "ĠPaul": 2950,
  "ĠYes": 2951,
  "king": 2952,
  "oly": 2953,
  "Ġson": 2954,
  "Ġavoid": 2955,
  "okes": 2956,
  "ĠJew": 2957,
  "Ġtowards": 2958,
  "asc": 2959,
  "Ġtalking": 2960,
  "Ġcorrect": 2961,
  "Ġspent": 2962,
  "icks": 2963,
  "iable": 2964,
  "eared": 2965,
  "Ġterm": 2966,
  "Ġwants": 2967,
  "oming": 2968,
  "Ġut": 2969,
  "Ġdoub": 2970,
  "Ġforces": 2971,
  "Ġplease": 2972,
  "ĠNovember": 2973,
  "Ġones": 2974,
  "Ġimmediately": 2975,
  "ĠRussian": 2976,
  "ĠMet": 2977,
  "Ġparents": 2978,
  "CH": 2979,
  "ĠAmericans": 2980,
  "aly": 2981,
  "ĠMod": 2982,
  "Ġshown": 2983,
  "Ġconditions": 2984,
  "Ġstuff": 2985,
  "Ġreb": 2986,
  "ĠYour": 2987,
  "Ġincludes": 2988,
  "nown": 2989,
  "ĠSam": 2990,
  "mission": 2991,
  "ĠEven": 2992,
  "aught": 2993,
  "Ġannounced": 2994,
  "Ġdescribed": 2995,
  "Ġdoor": 2996,
  "Ġchanged": 2997,
  "Ġneigh": 2998,
  "ĠHere": 2999,
  "Ġclean": 3000,
  "Ġpan": 3001,
  "ĠDecember": 3002,
  "ĠEuropean": 3003,
  "iring": 3004,
  "Ġclub": 3005,
  "ĠTuesday": 3006,
  "Ġpaid": 3007,
  "ĠNet": 3008,
  "Ġattacks": 3009,
  "Ġcharacters": 3010,
  "Ġalone": 3011,
  "Ġdirector": 3012,
  "dom": 3013,
  "Ġ35": 3014,
  "Ġload": 3015,
  "Ġrout": 3016,
  "ĠCalifornia": 3017,
  "Ġfinally": 3018,
  "Ġrac": 3019,
  "Ġexactly": 3020,
  "pri": 3021,
  "Ġnature": 3022,
  "Ġcareer": 3023,
  "Ġlatest": 3024,
  "Ġconvers": 3025,
  "ĠSl": 3026,
  "pose": 3027,
  "cient": 3028,
  "ĠInc": 3029,
  "ivity": 3030,
  "ĠAtt": 3031,
  "ĠMor": 3032,
  "Ġweight": 3033,
  "ken": 3034,
  "Ġnote": 3035,
  "Ġteams": 3036,
  "Ġ\\": 3037,
  "airs": 3038,
  "ĠGreen": 3039,
  "Ġhundred": 3040,
  "icated": 3041,
  "Ġregul": 3042,
  "Ġlic": 3043,
  "astic": 3044,
  "Ġten": 3045,
  "ously": 3046,
  "BI": 3047,
  "Ġcosts": 3048,
  "ĠAP": 3049,
  "Ġnormal": 3050,
  "Ġhom": 3051,
  "Ġobvious": 3052,
  "Ġswe": 3053,
  "Ġstar": 3054,
  "Ġready": 3055,
  "acher": 3056,
  "gest": 3057,
  "Ġsong": 3058,
  "ĠGet": 3059,
  "ĠLab": 3060,
  "Ġinteresting": 3061,
  "using": 3062,
  "Ġgiving": 3063,
  "ĠSunday": 3064,
  "Ġetc": 3065,
  "Ġmiddle": 3066,
  "Ġremember": 3067,
  "right": 3068,
  "osition": 3069,
  "utions": 3070,
  "Ġmax": 3071,
  "Ġyourself": 3072,
  "Ġdemand": 3073,
  "Ġtreatment": 3074,
  "Ġdanger": 3075,
  "ĠCons": 3076,
  "Ġguy": 3077,
  "Ġphysical": 3078,
  "Ġrelated": 3079,
  "Ġremain": 3080,
  "Ġcouldn": 3081,
  "Ġrefer": 3082,
  "box": 3083,
  "ENT": 3084,
  "board": 3085,
  "Ġinn": 3086,
  "IG": 3087,
  "ero": 3088,
  "ĠStreet": 3089,
  "ospital": 3090,
  "rench": 3091,
  "chers": 3092,
  "Ġstra": 3093,
  "OL": 3094,
  "ager": 3095,
  "ĠAN": 3096,
  "Ġeasily": 3097,
  "IA": 3098,
  "enge": 3099,
  "iny": 3100,
  "Ġclos": 3101,
  "ocked": 3102,
  "Ġuses": 3103,
  "Im": 3104,
  "??": 3105,
  "more": 3106,
  "Ġang": 3107,
  "Ġwrite": 3108,
  "olute": 3109,
  "Ġleader": 3110,
  "Ġreading": 3111,
  "</": 3112,
  "Ġautom": 3113,
  "ests": 3114,
  "ĠGold": 3115,
  "Ġdesigned": 3116,
  "ĠST": 3117,
  "ĠLeg": 3118,
  "ares": 3119,
  "Ġbeaut": 3120,
  "Ġappears": 3121,
  "Ġstrugg": 3122,
  "ĠRom": 3123,
  "Ġchoice": 3124,
  "Ġparticularly": 3125,
  "ĠFrom": 3126,
  "oper": 3127,
  "ĠLondon": 3128,
  "anned": 3129,
  "Ġallows": 3130,
  "obile": 3131,
  "Ġdifference": 3132,
  "ĠView": 3133,
  "ĠWednesday": 3134,
  "Ġalthough": 3135,
  "Ġrelative": 3136,
  "Ġapplication": 3137,
  "Ġaren": 3138,
  "Ġmyself": 3139,
  "Ġimag": 3140,
  "Ġsociety": 3141,
  "ĠEnglish": 3142,
  "Ġpoor": 3143,
  "ĠDay": 3144,
  "Ġwriting": 3145,
  "Ġseven": 3146,
  "Ġstarting": 3147,
  "Ġbud": 3148,
  "Ġprint": 3149,
  "ĠStud": 3150,
  "new": 3151,
  "Ġgives": 3152,
  "Ġcool": 3153,
  "ae": 3154,
  "iance": 3155,
  "ĠGeneral": 3156,
  "Ġthinking": 3157,
  "Ġsave": 3158,
  "Ġlimited": 3159,
  "ĠParty": 3160,
  "Ġmeaning": 3161,
  "pen": 3162,
  "owers": 3163,
  "ĠJack": 3164,
  "EM": 3165,
  "Ġnice": 3166,
  "rupt": 3167,
  "Ġgas": 3168,
  "Ġeight": 3169,
  "Ġfeet": 3170,
  "Ġeffort": 3171,
  "Ġign": 3172,
  "icit": 3173,
  "Bl": 3174,
  "coin": 3175,
  "Ġbrain": 3176,
  "While": 3177,
  "hest": 3178,
  "ĠThursday": 3179,
  "Ġwouldn": 3180,
  "aughter": 3181,
  "Ġtouch": 3182,
  "Ġstudies": 3183,
  "Ġcenter": 3184,
  "orge": 3185,
  "Ġcomputer": 3186,
  "Ġinvestigation": 3187,
  "Pl": 3188,
  "orks": 3189,
  "Ġincreasing": 3190,
  "Ġstore": 3191,
  "Ġcomments": 3192,
  "Ġbal": 3193,
  "men": 3194,
  "Ġdoll": 3195,
  "Ġliber": 3196,
  "Ġwife": 3197,
  "Ġlaws": 3198,
  "Ġmodern": 3199,
  "ĠSk": 3200,
  "Ġopportunity": 3201,
  "Ġsal": 3202,
  "Ġpowerful": 3203,
  "My": 3204,
  "Ġclaims": 3205,
  "ĠEarth": 3206,
  "ords": 3207,
  "Ġtitle": 3208,
  "Ġesc": 3209,
  "name": 3210,
  "Not": 3211,
  "Ġbeyond": 3212,
  "Ġcamer": 3213,
  "Ġsell": 3214,
  "itute": 3215,
  "earch": 3216,
  "Ġappl": 3217,
  "iment": 3218,
  "42": 3219,
  "ĠArt": 3220,
  "Ġunf": 3221,
  "Ġviolence": 3222,
  "urg": 3223,
  "ĠEast": 3224,
  "Ġcompared": 3225,
  "Ġoptions": 3226,
  "Ġthroughout": 3227,
  "aches": 3228,
  "Ġfiles": 3229,
  "FL": 3230,
  "EL": 3231,
  "arian": 3232,
  "ĠJames": 3233,
  "ĠAir": 3234,
  "anch": 3235,
  "Ġdetail": 3236,
  "Ġpiece": 3237,
  "Ġnamed": 3238,
  "Ġeducation": 3239,
  "Ġdrive": 3240,
  "Ġitems": 3241,
  "Ġstudent": 3242,
  "iced": 3243,
  "ico": 3244,
  "Ġthrow": 3245,
  "Ġscene": 3246,
  "Ġcomplex": 3247,
  "Ġprec": 3248,
  "Ġconcept": 3249,
  "Ġstatus": 3250,
  "aming": 3251,
  "Ġdied": 3252,
  "Ġknowledge": 3253,
  "Ġbeginning": 3254,
  "OD": 3255,
  "Ġcertainly": 3256,
  "Ġguys": 3257,
  "Ġslight": 3258,
  "inn": 3259,
  "ounds": 3260,
  "Ġfine": 3261,
  "Ġfat": 3262,
  "ications": 3263,
  "Ġperhaps": 3264,
  "ĠAnt": 3265,
  "Ġincome": 3266,
  "ports": 3267,
  "ston": 3268,
  "Ġgreater": 3269,
  "Ġfeed": 3270,
  "entially": 3271,
  "Ġsafety": 3272,
  "Ġunique": 3273,
  "Ġgone": 3274,
  "Ġshowed": 3275,
  "Ġcounter": 3276,
  "ius": 3277,
  "ida": 3278,
  "Ġleading": 3279,
  "ipe": 3280,
  "Ġsend": 3281,
  "ĠDonald": 3282,
  "erve": 3283,
  "Ġdefense": 3284,
  "Ġyes": 3285,
  "ĠFire": 3286,
  "Ġcontinued": 3287,
  "osh": 3288,
  "Ġprovides": 3289,
  "Ġprison": 3290,
  "ĠPre": 3291,
  "Ġhappy": 3292,
  "Ġtrust": 3293,
  "ags": 3294,
  "ĠGame": 3295,
  "Ġweapons": 3296,
  "uman": 3297,
  "ĠCle": 3298,
  "itation": 3299,
  "ĠTimes": 3300,
  "Ġscience": 3301,
  "Ġfigure": 3302,
  "Ġdisapp": 3303,
  "enty": 3304,
  "Ġsoftware": 3305,
  "Ġult": 3306,
  "Ġofficers": 3307,
  "New": 3308,
  "Is": 3309,
  "Ġremains": 3310,
  "ĠIndia": 3311,
  "rief": 3312,
  "Ġcat": 3313,
  "esc": 3314,
  "Ġobserv": 3315,
  "Ġstage": 3316,
  "ĠDark": 3317,
  "Ġenter": 3318,
  "change": 3319,
  "Ġpassed": 3320,
  "Ġdespite": 3321,
  "ĠOut": 3322,
  "Ġmovie": 3323,
  "rs": 3324,
  "Ġvoice": 3325,
  "mine": 3326,
  "ĠPlay": 3327,
  "Ġtoward": 3328,
  "ĠTer": 3329,
  "Ġregion": 3330,
  "Ġvalues": 3331,
  "orters": 3332,
  "Ġmount": 3333,
  "Ġofficer": 3334,
  "ĠOther": 3335,
  "ban": 3336,
  "wood": 3337,
  "room": 3338,
  "IV": 3339,
  "ĠSun": 3340,
  "see": 3341,
  "ĠOver": 3342,
  "rog": 3343,
  "90": 3344,
  "Ġlay": 3345,
  "ĠTur": 3346,
  "awn": 3347,
  "Ġpressure": 3348,
  "ĠSub": 3349,
  "Ġbooks": 3350,
  "ĠSand": 3351,
  "AA": 3352,
  "ago": 3353,
  "Ġreasons": 3354,
  "ford": 3355,
  "Ġactivity": 3356,
  "UT": 3357,
  "Now": 3358,
  "cell": 3359,
  "night": 3360,
  "Ġcalls": 3361,
  "inter": 3362,
  "Ġletter": 3363,
  "ĠRob": 3364,
  "ĠJe": 3365,
  "Ġchoose": 3366,
  "ĠLaw": 3367,
  "Get": 3368,
  "Be": 3369,
  "Ġrob": 3370,
  "Ġtypes": 3371,
  "Ġplatform": 3372,
  "Ġquarter": 3373,
  "RA": 3374,
  "ĠTime": 3375,
  "Ġmaybe": 3376,
  "ĠCr": 3377,
  "95": 3378,
  "pre": 3379,
  "Ġmoving": 3380,
  "Ġlif": 3381,
  "Ġgold": 3382,
  "Ġsom": 3383,
  "Ġpatients": 3384,
  "Ġtruth": 3385,
  "ĠKe": 3386,
  "urance": 3387,
  "antly": 3388,
  "mar": 3389,
  "Ġcharge": 3390,
  "ĠGreat": 3391,
  "Ġrock": 3392,
  "ancy": 3393,
  "Ġcredit": 3394,
  "aud": 3395,
  "By": 3396,
  "ĠEvery": 3397,
  "Ġmoved": 3398,
  "inger": 3399,
  "Ġnames": 3400,
  "Ġstraight": 3401,
  "ĠHealth": 3402,
  "ĠWell": 3403,
  "Ġfeature": 3404,
  "Ġrule": 3405,
  "Ġsche": 3406,
  "inated": 3407,
  "ĠMichael": 3408,
  "berg": 3409,
  "iled": 3410,
  "band": 3411,
  "Ġclick": 3412,
  "ĠAngel": 3413,
  "ÂŃ": 3414,
  "ĠIraq": 3415,
  "ĠSaturday": 3416,
  "Ġaware": 3417,
  "part": 3418,
  "Ġpattern": 3419,
  "OW": 3420,
  "ĠLet": 3421,
  "Ġgrad": 3422,
  "igned": 3423,
  "Ġassociated": 3424,
  "Ġstyle": 3425,
  "no": 3426,
  "iation": 3427,
  "aith": 3428,
  "ilies": 3429,
  "Ġstories": 3430,
  "Ġindividuals": 3431,
  "ĠâĢ¦": 3432,
  "miss": 3433,
  "ishing": 3434,
  "aby": 3435,
  "Ġsummer": 3436,
  "ĠBen": 3437,
  "Ġ32": 3438,
  "Ġarch": 3439,
  "uty": 3440,
  "ĠTexas": 3441,
  "hol": 3442,
  "Ġfully": 3443,
  "Ġmill": 3444,
  "Ġfollowed": 3445,
  "ĠBill": 3446,
  "ĠIndian": 3447,
  "ĠSecret": 3448,
  "ĠBel": 3449,
  "ĠFebruary": 3450,
  "Ġjobs": 3451,
  "Ġseemed": 3452,
  "ipped": 3453,
  "Ġreality": 3454,
  "Ġlines": 3455,
  "Ġpark": 3456,
  "Ġmeasure": 3457,
  "ĠOur": 3458,
  "IM": 3459,
  "Ġbrother": 3460,
  "Ġgrowing": 3461,
  "Ġban": 3462,
  "Ġcry": 3463,
  "ĠSchool": 3464,
  "ĠOF": 3465,
  "ĠWindows": 3466,
  "Ġrates": 3467,
  "ĠOh": 3468,
  "Ġpositive": 3469,
  "Ġculture": 3470,
  "ica": 3471,
  "Ġhar": 3472,
  "ya": 3473,
  "itely": 3474,
  "ipp": 3475,
  "Ġmap": 3476,
  "ĠWilliam": 3477,
  "akers": 3478,
  "56": 3479,
  "ĠMart": 3480,
  "ĠRem": 3481,
  "Ġaltern": 3482,
  "itude": 3483,
  "Ġcoach": 3484,
  "rowd": 3485,
  "Don": 3486,
  "Ġkids": 3487,
  "Ġjournal": 3488,
  "Ġfalse": 3489,
  "Ġweb": 3490,
  "Ġsleep": 3491,
  "Ġcontain": 3492,
  "Ġsto": 3493,
  "Ġbed": 3494,
  "iverse": 3495,
  "ĠRich": 3496,
  "ĠChinese": 3497,
  "Ġpun": 3498,
  "Ġmeant": 3499,
  "known": 3500,
  "Ġnotice": 3501,
  "Ġfavorite": 3502,
  "aven": 3503,
  "Ġcondition": 3504,
  "Ġpurpose": 3505,
  "Ġorganization": 3506,
  "Ġsusp": 3507,
  "ĠAc": 3508,
  "unes": 3509,
  "Ġmer": 3510,
  "Ġ80": 3511,
  "Ġmist": 3512,
  "ĠUs": 3513,
  "ĠTor": 3514,
  "olf": 3515,
  "Ġlarger": 3516,
  "Ġactions": 3517,
  "ml": 3518,
  "Ġkept": 3519,
  "Ġaim": 3520,
  ",'": 3521,
  "col": 3522,
  "Ġbenefits": 3523,
  "ifying": 3524,
  "Ġactual": 3525,
  "Ġvehicle": 3526,
  "Ġchief": 3527,
  "Ġefforts": 3528,
  "ĠLeague": 3529,
  "ĠMost": 3530,
  "Ġwait": 3531,
  "Ġadult": 3532,
  "Ġoverall": 3533,
  "Ġspeech": 3534,
  "Ġhighly": 3535,
  "Ġfemale": 3536,
  "Ġerror": 3537,
  "Ġeffective": 3538,
  "Ġencour": 3539,
  "well": 3540,
  "Ġfailed": 3541,
  "Ġprograms": 3542,
  "Ġtrou": 3543,
  "Ġahead": 3544,
  "500": 3545,
  "IP": 3546,
  "ĠFound": 3547,
  "pir": 3548,
  "Ġcrime": 3549,
  "ander": 3550,
  "Ġlocation": 3551,
  "Ġbehavior": 3552,
  "azing": 3553,
  "Ġrare": 3554,
  "Ġemb": 3555,
  "Ġcaused": 3556,
  "Ġship": 3557,
  "Ġactive": 3558,
  "Ġgreen": 3559,
  "Ġacqu": 3560,
  "Ġreflect": 3561,
  "venue": 3562,
  "Ġfirm": 3563,
  "Ġbirth": 3564,
  "].": 3565,
  "Ġclearly": 3566,
  "Ġagency": 3567,
  "riage": 3568,
  "Ġmemory": 3569,
  "98": 3570,
  "SA": 3571,
  "ĠSee": 3572,
  "acing": 3573,
  "CC": 3574,
  "Ġbiggest": 3575,
  "Ġrap": 3576,
  "Ġbasic": 3577,
  "Ġband": 3578,
  "eat": 3579,
  "Ġsuspect": 3580,
  "ĠMac": 3581,
  "Ġ90": 3582,
  "mark": 3583,
  "istan": 3584,
  "Ġspread": 3585,
  "ams": 3586,
  "ki": 3587,
  "asy": 3588,
  "rav": 3589,
  "rated": 3590,
  "Ġabsolute": 3591,
  "Ġplaces": 3592,
  "Ġimpl": 3593,
  "Ġcards": 3594,
  "Ġdestroy": 3595,
  "vere": 3596,
  "Ġappeared": 3597,
  "yan": 3598,
  "point": 3599,
  "Ġbeg": 3600,
  "Ġtemper": 3601,
  "spe": 3602,
  "anted": 3603,
  "ears": 3604,
  "ĠDirect": 3605,
  "Ġlength": 3606,
  "Ġblog": 3607,
  "amb": 3608,
  "Ġresources": 3609,
  "acc": 3610,
  "iful": 3611,
  "Ġspot": 3612,
  "Ġforced": 3613,
  "Ġthousands": 3614,
  "ĠFrench": 3615,
  "atically": 3616,
  "Ġgenerally": 3617,
  "Ġdrink": 3618,
  "Ġthus": 3619,
  "IL": 3620,
  "odes": 3621,
  "ĠRead": 3622,
  "Ġwhom": 3623,
  "Ġeye": 3624,
  "Ġcollege": 3625,
  "Ġ45": 3626,
  "Ġensure": 3627,
  "Ġapparent": 3628,
  "iders": 3629,
  "Ġminor": 3630,
  "Ġtro": 3631,
  "ĠWhy": 3632,
  "met": 3633,
  "Ġdeveloped": 3634,
  "Ġpeace": 3635,
  "Ġskin": 3636,
  "ste": 3637,
  "ava": 3638,
  "Ġblue": 3639,
  "Ġfamilies": 3640,
  "Ġir": 3641,
  "Ġapply": 3642,
  "Ġinform": 3643,
  "ĠSmith": 3644,
  "CT": 3645,
  "ii": 3646,
  "Ġlimit": 3647,
  "Ġresist": 3648,
  "umn": 3649,
  "Ġtwe": 3650,
  "udd": 3651,
  "ĠTom": 3652,
  "que": 3653,
  "bon": 3654,
  "Ġhair": 3655,
  "Ġeventually": 3656,
  "Ġpus": 3657,
  "Ġhelped": 3658,
  "orney": 3659,
  "ĠApple": 3660,
  "Ġfit": 3661,
  "ĠSur": 3662,
  "Ġsales": 3663,
  "Ġseconds": 3664,
  "Ġstrength": 3665,
  "Ġfeeling": 3666,
  "Ġtour": 3667,
  "Ġknows": 3668,
  "oom": 3669,
  "Ġexerc": 3670,
  "Ġsomew": 3671,
  "Ġspokes": 3672,
  "Ġideas": 3673,
  "soft": 3674,
  "ĠDel": 3675,
  "Ġlaunch": 3676,
  "Ġbottom": 3677,
  "TH": 3678,
  "ĠPlease": 3679,
  "vest": 3680,
  "itz": 3681,
  "ĠInter": 3682,
  "Ġscript": 3683,
  "Ġrat": 3684,
  "ĠJer": 3685,
  "ĠAre": 3686,
  "Ġwhatever": 3687,
  "oken": 3688,
  "Ġmode": 3689,
  "Ġagree": 3690,
  "Ġsources": 3691,
  "Ġinitial": 3692,
  "Ġwonder": 3693,
  "####": 3694,
  "ĠSil": 3695,
  "ville": 3696,
  "Ġburn": 3697,
  "tw": 3698,
  "ĠÂ£": 3699,
  "Ġnor": 3700,
  "uing": 3701,
  "Ġreached": 3702,
  "Ġsun": 3703,
  "Ġcook": 3704,
  "Ġmale": 3705,
  "Ġclimate": 3706,
  "Ġfix": 3707,
  "UR": 3708,
  "alled": 3709,
  "Ġimages": 3710,
  "Cont": 3711,
  "ota": 3712,
  "Ġschools": 3713,
  "ios": 3714,
  "Ġdrop": 3715,
  "Ġstream": 3716,
  "ĠMo": 3717,
  "Ġpreviously": 3718,
  "aling": 3719,
  "Ġpet": 3720,
  "Ġdouble": 3721,
  "annel": 3722,
  "Ġdefault": 3723,
  "ties": 3724,
  "ĠDec": 3725,
  "Ġweapon": 3726,
  "Ġstock": 3727,
  "ĠStr": 3728,
  "Ġpicture": 3729,
  "ĠPolice": 3730,
  "Ġcentury": 3731,
  "Ġcitizens": 3732,
  "Ġonto": 3733,
  "Ġexpand": 3734,
  "Ġhero": 3735,
  "ĠSol": 3736,
  "Ġwild": 3737,
  "Ġupdate": 3738,
  "Ġcustomers": 3739,
  "ront": 3740,
  "def": 3741,
  "Ġcriminal": 3742,
  "ĠChristian": 3743,
  "SP": 3744,
  "76": 3745,
  "Ġleaving": 3746,
  "Ġotherwise": 3747,
  "ĠDist": 3748,
  "Ġbasis": 3749,
  "icip": 3750,
  "ĠBer": 3751,
  "Ġrecommend": 3752,
  "Ġfloor": 3753,
  "Ġcrowd": 3754,
  "oles": 3755,
  "Ġ70": 3756,
  "Ġcentral": 3757,
  "ĠEv": 3758,
  "Ġdream": 3759,
  "Ġdownload": 3760,
  "ĠThom": 3761,
  "Ġwindow": 3762,
  "Ġhappens": 3763,
  "Ġunit": 3764,
  "Ġtend": 3765,
  "Ġspl": 3766,
  "Ġbecomes": 3767,
  "Ġfighting": 3768,
  "Ġpredict": 3769,
  "ĠPress": 3770,
  "ĠPower": 3771,
  "Ġheavy": 3772,
  "aked": 3773,
  "Ġfan": 3774,
  "orter": 3775,
  "BA": 3776,
  "izes": 3777,
  "Ġspend": 3778,
  "Here": 3779,
  "ĠHam": 3780,
  "Ġfootball": 3781,
  "ĠPort": 3782,
  "Ġtransfer": 3783,
  "ht": 3784,
  "Ġ38": 3785,
  "term": 3786,
  "acity": 3787,
  "Ġbur": 3788,
  "],": 3789,
  "rig": 3790,
  "but": 3791,
  "Ġtherefore": 3792,
  "ĠBecause": 3793,
  "resp": 3794,
  "rey": 3795,
  "Ġmission": 3796,
  "Some": 3797,
  "Ġnoted": 3798,
  "Ġdisease": 3799,
  "Ġedit": 3800,
  "Ġprogress": 3801,
  "rd": 3802,
  "ĠBrown": 3803,
  "Ġadding": 3804,
  "Ġraised": 3805,
  "ĠAny": 3806,
  "Ġtick": 3807,
  "Ġseeing": 3808,
  "ĠPeople": 3809,
  "Ġagreement": 3810,
  "Ġserver": 3811,
  "Ġwat": 3812,
  "Ġdebate": 3813,
  "Ġsupposed": 3814,
  "iling": 3815,
  "Ġlargest": 3816,
  "Ġsuccessful": 3817,
  "ĠPri": 3818,
  "Ġjump": 3819,
  "ĠSyria": 3820,
  "Ġowners": 3821,
  "Ġoffers": 3822,
  "Ġshooting": 3823,
  "sey": 3824,
  "Ġhaven": 3825,
  "verse": 3826,
  "tered": 3827,
  "ĠLight": 3828,
  "ĠBig": 3829,
  "Ġdefend": 3830,
  "Ġbeat": 3831,
  "Ġrecords": 3832,
  "Ġemployees": 3833,
  "Ġdevices": 3834,
  "hem": 3835,
  "Ġbenefit": 3836,
  "Ġsurface": 3837,
  "ĠAlso": 3838,
  "Ġharm": 3839,
  "ingly": 3840,
  "wide": 3841,
  "ĠAlex": 3842,
  "Ġshut": 3843,
  "ĠCur": 3844,
  "Ġlose": 3845,
  "pm": 3846,
  "Ġchallenge": 3847,
  "Ġstation": 3848,
  "Ġintelligence": 3849,
  "ĠFlor": 3850,
  "Ġrequires": 3851,
  "ĠMal": 3852,
  "bum": 3853,
  "Ġhospital": 3854,
  "Ġspirit": 3855,
  "Ġoffered": 3856,
  "Ġproduce": 3857,
  "Ġcreating": 3858,
  "Ġcris": 3859,
  "spect": 3860,
  "Ġended": 3861,
  "Ġdaily": 3862,
  "lands": 3863,
  "ias": 3864,
  "ih": 3865,
  "ona": 3866,
  "Ġsmart": 3867,
  "ĠOffice": 3868,
  "ĠLord": 3869,
  "ĠInternet": 3870,
  "Ġextremely": 3871,
  "'.": 3872,
  "Ġopinion": 3873,
  "ĠMil": 3874,
  "Ġgain": 3875,
  "ĠFin": 3876,
  "yp": 3877,
  "Ġuseful": 3878,
  "Ġbudget": 3879,
  "Ġcomfort": 3880,
  "Ġbackground": 3881,
  "eline": 3882,
  "Ġepisode": 3883,
  "Ġenemy": 3884,
  "Ġtrial": 3885,
  "Ġestablish": 3886,
  "date": 3887,
  "ĠCap": 3888,
  "Ġcontinues": 3889,
  "Ġshowing": 3890,
  "with": 3891,
  "Ġposted": 3892,
  "ĠSystem": 3893,
  "Ġeat": 3894,
  "rian": 3895,
  "Ġrise": 3896,
  "ĠGermany": 3897,
  "ils": 3898,
  "Ġsigned": 3899,
  "Ġvill": 3900,
  "Ġgrand": 3901,
  "mor": 3902,
  "ĠEngland": 3903,
  "Ġprojects": 3904,
  "umber": 3905,
  "Ġconference": 3906,
  "za": 3907,
  "Ġresponsible": 3908,
  "Ġlearned": 3909,
  "ipping": 3910,
  "ĠGeorge": 3911,
  "OC": 3912,
  "Ġreturned": 3913,
  "ĠAustralia": 3914,
  "Ġbrief": 3915,
  "Qu": 3916,
  "Ġbrand": 3917,
  "illing": 3918,
  "abled": 3919,
  "Ġhighest": 3920,
  "Ġtrain": 3921,
  "while": 3922,
  "Ġnom": 3923,
  "Ġmut": 3924,
  "ĠBlue": 3925,
  "Ġincident": 3926,
  "ĠID": 3927,
  "ĠLike": 3928,
  "ĠRE": 3929,
  "ĠMicro": 3930,
  "li": 3931,
  "mail": 3932,
  "Ġcharges": 3933,
  "Ġadjust": 3934,
  "ado": 3935,
  "Ġearth": 3936,
  "NA": 3937,
  "Ġprices": 3938,
  "PA": 3939,
  "Ġdraft": 3940,
  "Ġruns": 3941,
  "Ġcandidate": 3942,
  "enses": 3943,
  "Ġmanagement": 3944,
  "ĠPhil": 3945,
  "ĠMiss": 3946,
  "Ġteach": 3947,
  "gram": 3948,
  "Ġunderstanding": 3949,
  "ait": 3950,
  "Add": 3951,
  "Ġseparate": 3952,
  "Ġinstance": 3953,
  "Ġunless": 3954,
  "ĠFore": 3955,
  "inate": 3956,
  "Ġoperations": 3957,
  "Sp": 3958,
  "Ġfaith": 3959,
  "gar": 3960,
  "ĠChurch": 3961,
  "ronic": 3962,
  "Ġactivities": 3963,
  "Ġtraditional": 3964,
  "Ġ36": 3965,
  "Ġdirection": 3966,
  "Ġmachine": 3967,
  "Ġsurround": 3968,
  "Ġpush": 3969,
  "Ġeasier": 3970,
  "Ġargument": 3971,
  "Ġmicro": 3972,
  "Ġspending": 3973,
  "Ġtheory": 3974,
  "adow": 3975,
  "Ġcalling": 3976,
  "ĠLast": 3977,
  "Ġder": 3978,
  "Ġinfluence": 3979,
  "Ġcommit": 3980,
  "Ġphoto": 3981,
  "Ġunc": 3982,
  "istry": 3983,
  "gn": 3984,
  "aste": 3985,
  "acks": 3986,
  "ady": 3987,
  "do": 3988,
  "ĠGood": 3989,
  "Ġ`": 3990,
  "Ġwish": 3991,
  "Ġrevealed": 3992,
  "ÂłÂł": 3993,
  "lig": 3994,
  "Ġenforce": 3995,
  "Ġchem": 3996,
  "Ġmiles": 3997,
  "Ġinterested": 3998,
  "Ġsolution": 3999,
  "icy": 4000,
  "inct": 4001,
  "ĠDet": 4002,
  "Ġremoved": 4003,
  "eah": 4004,
  "Ġplant": 4005,
  "ĠSince": 4006,
  "Ġachieve": 4007,
  "Ġadvantage": 4008,
  "Ġslightly": 4009,
  "bing": 4010,
  "Ġplaced": 4011,
  "under": 4012,
  "ĠMad": 4013,
  "Ġtim": 4014,
  "oses": 4015,
  "Ġcru": 4016,
  "ĠRock": 4017,
  "Ġmostly": 4018,
  "Ġnegative": 4019,
  "Ġsetting": 4020,
  "Ġproduced": 4021,
  "Ġmur": 4022,
  "Ġconnection": 4023,
  "ĠMer": 4024,
  "Ġdriver": 4025,
  "Ġassault": 4026,
  "Ġborn": 4027,
  "ĠVer": 4028,
  "Ġstructure": 4029,
  "Ġreduce": 4030,
  "Ġdecades": 4031,
  "Ġded": 4032,
  "uke": 4033,
  "ĠMany": 4034,
  "Ġleague": 4035,
  "Se": 4036,
  "Ġjoin": 4037,
  "Ġdisco": 4038,
  "Ġdie": 4039,
  "cks": 4040,
  "Ġassess": 4041,
  "Ġgoals": 4042,
  "ours": 4043,
  "IR": 4044,
  "iller": 4045,
  "mod": 4046,
  "ipment": 4047,
  "ocol": 4048,
  "uy": 4049,
  "Ġparties": 4050,
  "Ġlearning": 4051,
  "itable": 4052,
  "Ġstreet": 4053,
  "Ġcamera": 4054,
  "App": 4055,
  "Ġskills": 4056,
  "bre": 4057,
  "cious": 4058,
  "Ġcelebr": 4059,
  "ĠFranc": 4060,
  "Ġexisting": 4061,
  "Ġwilling": 4062,
  "lor": 4063,
  "Ġid": 4064,
  "ĠSpace": 4065,
  "Ġcritical": 4066,
  "ĠLa": 4067,
  "Ġserve": 4068,
  "Ġcold": 4069,
  "Ġspecies": 4070,
  "TS": 4071,
  "Ġanimals": 4072,
  "ĠBay": 4073,
  "Ġolder": 4074,
  "ĠUnder": 4075,
  "estic": 4076,
  "ĠTre": 4077,
  "Ġteacher": 4078,
  "Ġprefer": 4079,
  "vis": 4080,
  "Ġthread": 4081,
  "ĠMatt": 4082,
  "Ġmanager": 4083,
  "Ġprofessional": 4084,
  "ĠVol": 4085,
  "Ġnotes": 4086,
  "These": 4087,
  "ula": 4088,
  "Ġfresh": 4089,
  "ented": 4090,
  "uzz": 4091,
  "edy": 4092,
  "ĠRel": 4093,
  "Ġdoubt": 4094,
  "EO": 4095,
  "Ġopened": 4096,
  "ĠBit": 4097,
  "Ġguess": 4098,
  "ĠUN": 4099,
  "Ġsequ": 4100,
  "Ġexplain": 4101,
  "otten": 4102,
  "Ġattract": 4103,
  "aks": 4104,
  "Ġstring": 4105,
  "Ġcontext": 4106,
  "ossible": 4107,
  "Ġsolid": 4108,
  "Ġcities": 4109,
  "Ġasking": 4110,
  "Ġrandom": 4111,
  "ups": 4112,
  "uries": 4113,
  "arant": 4114,
  "dden": 4115,
  "gl": 4116,
  "ĠFlorida": 4117,
  "Ġdepend": 4118,
  "ĠScott": 4119,
  "Ġmentioned": 4120,
  "Ġclaimed": 4121,
  "Ġdefinitely": 4122,
  "ulf": 4123,
  "Ġcore": 4124,
  "Ġopening": 4125,
  "which": 4126,
  "ĠTra": 4127,
  "Ġbelieved": 4128,
  "ada": 4129,
  "Ġ48": 4130,
  "ĠSecurity": 4131,
  "ĠPet": 4132,
  "ĠLou": 4133,
  "Ġholding": 4134,
  "================": 4135,
  "Ġice": 4136,
  "Ġbrow": 4137,
  "Ġauthorities": 4138,
  "word": 4139,
  "Ġscore": 4140,
  "ĠDiv": 4141,
  "Ġcells": 4142,
  "Ġneighbor": 4143,
  "Ġremove": 4144,
  "uct": 4145,
  "ĠAccording": 4146,
  "Ġworse": 4147,
  "Ġconcerns": 4148,
  "ĠHall": 4149,
  "Ġhus": 4150,
  "AY": 4151,
  "ĠJud": 4152,
  "Ġindependent": 4153,
  "ĠJustice": 4154,
  "print": 4155,
  "ighter": 4156,
  "Ġprotection": 4157,
  "Ġsudden": 4158,
  "house": 4159,
  "ĠJes": 4160,
  "PR": 4161,
  "ĠInf": 4162,
  "Ġbul": 4163,
  "Ġ_": 4164,
  "ĠService": 4165,
  "ĠPR": 4166,
  "Ġstrategy": 4167,
  "Ġgirls": 4168,
  "Ġmissing": 4169,
  "oyal": 4170,
  "ĠTeam": 4171,
  "ulated": 4172,
  "Ġdat": 4173,
  "Ġpolitics": 4174,
  "According": 4175,
  "Ġspell": 4176,
  "Ġgraph": 4177,
  "Ab": 4178,
  "Ġlabor": 4179,
  "isher": 4180,
  "Ġkick": 4181,
  "Ġsteps": 4182,
  "Ġsmaller": 4183,
  "En": 4184,
  "bert": 4185,
  "Ġroll": 4186,
  "Ġresearchers": 4187,
  "Ġclosed": 4188,
  "Ġtransport": 4189,
  "ĠChicago": 4190,
  "Ġaspect": 4191,
  "Ġnone": 4192,
  "Ġmarriage": 4193,
  "Ġelements": 4194,
  "ĠFre": 4195,
  "ĠSal": 4196,
  "top": 4197,
  "equ": 4198,
  "Ġhearing": 4199,
  "Ġsupported": 4200,
  "Ġtesting": 4201,
  "Ġmassive": 4202,
  "Ġstick": 4203,
  "Ġguard": 4204,
  "isco": 4205,
  "phone": 4206,
  "From": 4207,
  "However": 4208,
  "Ġborder": 4209,
  "Ġcopy": 4210,
  "ography": 4211,
  "list": 4212,
  "Ġowner": 4213,
  "class": 4214,
  "ruit": 4215,
  "rate": 4216,
  "ĠOnce": 4217,
  "Ġdigital": 4218,
  "Ġtask": 4219,
  "ERS": 4220,
  "Ġincred": 4221,
  "ĠFrance": 4222,
  "Ġbreat": 4223,
  "owl": 4224,
  "Ġissued": 4225,
  "ĠWestern": 4226,
  "Ġdetect": 4227,
  "Ġpartners": 4228,
  "Ġshared": 4229,
  "ĠCall": 4230,
  "Ġcancer": 4231,
  "ache": 4232,
  "Ġexplained": 4233,
  "Ġheat": 4234,
  "Ġinvestment": 4235,
  "ĠBook": 4236,
  "Ġwood": 4237,
  "Ġtools": 4238,
  "ĠAlthough": 4239,
  "Ġbelief": 4240,
  "Ġcrisis": 4241,
  "Ġge": 4242,
  "Ġoperation": 4243,
  "~~": 4244,
  "ga": 4245,
  "Ġcontains": 4246,
  "anta": 4247,
  "Ġexpress": 4248,
  "ĠGroup": 4249,
  "ĠJournal": 4250,
  "ka": 4251,
  "Ġamb": 4252,
  "ĠUSA": 4253,
  "Ġfinding": 4254,
  "how": 4255,
  "Ġestablished": 4256,
  "ideos": 4257,
  "Ġdegree": 4258,
  "Ġdangerous": 4259,
  "anging": 4260,
  "Ġfreedom": 4261,
  "Ġchurch": 4262,
  "Ġcatch": 4263,
  "ĠTwo": 4264,
  "Ġpresence": 4265,
  "ĠGuard": 4266,
  "Up": 4267,
  "Ġauthority": 4268,
  "Ġbutton": 4269,
  "Ġvalid": 4270,
  "Ġweak": 4271,
  "Ġstarts": 4272,
  "Ġreference": 4273,
  "ĠMem": 4274,
  "\")": 4275,
  "UN": 4276,
  "ĠOpen": 4277,
  "Ġcollection": 4278,
  "ym": 4279,
  "gency": 4280,
  "Ġbeautiful": 4281,
  "ros": 4282,
  "Ġtells": 4283,
  "Ġwaiting": 4284,
  "nel": 4285,
  "Ġproviding": 4286,
  "Ġdaughter": 4287,
  "Ġmaster": 4288,
  "Ġpurposes": 4289,
  "Ġequal": 4290,
  "Ġturns": 4291,
  "Ġdocuments": 4292,
  "Ġwatching": 4293,
  "Res": 4294,
  "Ġran": 4295,
  "Ġreject": 4296,
  "ĠKorea": 4297,
  "Ġvictims": 4298,
  "Ġwitness": 4299,
  "Ġ34": 4300,
  "coming": 4301,
  "Ġcaught": 4302,
  "Ġtraffic": 4303,
  "ading": 4304,
  "Ġmodels": 4305,
  "Ġserved": 4306,
  "Ġbatter": 4307,
  "uate": 4308,
  "Ġagreed": 4309,
  "Ġtruly": 4310,
  "ynam": 4311,
  "ĠRet": 4312,
  "Ġunits": 4313,
  "hand": 4314,
  "azine": 4315,
  "ĠMike": 4316,
  "Ġvariety": 4317,
  "Ġamazing": 4318,
  "Ġconfirmed": 4319,
  "Ġentirely": 4320,
  "Ġpurchase": 4321,
  "Ġelement": 4322,
  "Ġcash": 4323,
  "Ġdetermine": 4324,
  "De": 4325,
  "Ġcars": 4326,
  "ĠWall": 4327,
  "Ġviews": 4328,
  "Ġdrugs": 4329,
  "Ġdepartment": 4330,
  "ĠStep": 4331,
  "uit": 4332,
  "Ġ39": 4333,
  "asure": 4334,
  "ĠClass": 4335,
  "Ġcovered": 4336,
  "ĠBank": 4337,
  "Ġmere": 4338,
  "uana": 4339,
  "Ġmulti": 4340,
  "Ġmix": 4341,
  "Ġunlike": 4342,
  "levision": 4343,
  "Ġstopped": 4344,
  "ĠGal": 4345,
  "ules": 4346,
  "Ġwel": 4347,
  "ĠJohnson": 4348,
  "la": 4349,
  "Ġskill": 4350,
  "Ġbecoming": 4351,
  "rie": 4352,
  "Ġappropriate": 4353,
  "fe": 4354,
  "ellow": 4355,
  "ĠProt": 4356,
  "ulate": 4357,
  "ocation": 4358,
  "Ġweekend": 4359,
  "Ġsites": 4360,
  "Ġanimal": 4361,
  "ĠTim": 4362,
  "Ġscale": 4363,
  "Ġcharged": 4364,
  "Ġinstruct": 4365,
  "illa": 4366,
  "Ġmethods": 4367,
  "Ġjudge": 4368,
  "ĠHel": 4369,
  "Ġdollars": 4370,
  "Ġstanding": 4371,
  "ĠSqu": 4372,
  "Ġdebt": 4373,
  "Ġdriving": 4374,
  "ĠSum": 4375,
  "Ġalbum": 4376,
  "andon": 4377,
  "IF": 4378,
  "ĠUk": 4379,
  "ader": 4380,
  "Ġcommercial": 4381,
  "esh": 4382,
  "ĠGovernment": 4383,
  "Ġdiscovered": 4384,
  "ĠHillary": 4385,
  "ĠCarol": 4386,
  "Ġabuse": 4387,
  "ancing": 4388,
  "Ġswitch": 4389,
  "Ġannual": 4390,
  "Tw": 4391,
  "Ġstated": 4392,
  "agement": 4393,
  "inner": 4394,
  "Ġresidents": 4395,
  "Ġallowing": 4396,
  "Ġfactors": 4397,
  "odd": 4398,
  "Ġoccurred": 4399,
  "Ġnorth": 4400,
  "Ġinjury": 4401,
  "Ġinsurance": 4402,
  "CL": 4403,
  "olly": 4404,
  "ãĢ": 4405,
  "Ġrepeated": 4406,
  "Ġarms": 4407,
  "anged": 4408,
  "Ġconstruction": 4409,
  "Ġfle": 4410,
  "PU": 4411,
  "icians": 4412,
  "Ġforms": 4413,
  "antic": 4414,
  "Ġmental": 4415,
  "pire": 4416,
  "Ġequipment": 4417,
  "Ġfant": 4418,
  "Ġdiscussion": 4419,
  "Ġregarding": 4420,
  "kin": 4421,
  "arp": 4422,
  "Ġchair": 4423,
  "Ġproceed": 4424,
  "ĠId": 4425,
  "Our": 4426,
  "Ġmurder": 4427,
  "Man": 4428,
  "asp": 4429,
  "Ġsupply": 4430,
  "Ġwealth": 4431,
  "ĠStat": 4432,
  "Ġputting": 4433,
  "etic": 4434,
  "Ġlocated": 4435,
  "Ġkid": 4436,
  "eria": 4437,
  "run": 4438,
  "Ġ!": 4439,
  "going": 4440,
  "ĠBet": 4441,
  "Ġclot": 4442,
  "Ġtelling": 4443,
  "Ġproposed": 4444,
  "iot": 4445,
  "orry": 4446,
  "Ġfunds": 4447,
  "ĠLife": 4448,
  "Ġbaby": 4449,
  "ĠBack": 4450,
  "Ġspoke": 4451,
  "Image": 4452,
  "Ġearn": 4453,
  "ĠAT": 4454,
  "gu": 4455,
  "Ġexchange": 4456,
  "ĠLin": 4457,
  "oving": 4458,
  "Ġpair": 4459,
  "More": 4460,
  "Ġarrested": 4461,
  "Ġkilling": 4462,
  "can": 4463,
  "ĠCard": 4464,
  "yd": 4465,
  "Ġidentified": 4466,
  "Ġmobile": 4467,
  "Ġthanks": 4468,
  "onym": 4469,
  "Ġhundreds": 4470,
  "ĠChris": 4471,
  "ĠCat": 4472,
  "Ġtrend": 4473,
  "hat": 4474,
  "ĠAv": 4475,
  "oman": 4476,
  "Ġelectric": 4477,
  "ĠWil": 4478,
  "SE": 4479,
  "Of": 4480,
  "oted": 4481,
  "Ġtrig": 4482,
  "Ġnine": 4483,
  "Ġbomb": 4484,
  "Why": 4485,
  "Ġappeal": 4486,
  "ĠRobert": 4487,
  "ĠSup": 4488,
  "Ġfinished": 4489,
  "Ġflow": 4490,
  "Ġdeliver": 4491,
  "Ġcalcul": 4492,
  "Ġphotos": 4493,
  "Ġpieces": 4494,
  "kes": 4495,
  "Ġrough": 4496,
  "Do": 4497,
  "Ġpartner": 4498,
  "Ġconcerned": 4499,
  "Ġ37": 4500,
  "ĠGen": 4501,
  "Col": 4502,
  "ctors": 4503,
  "state": 4504,
  "Ġsuggested": 4505,
  "ĠForce": 4506,
  "CE": 4507,
  "Ġherself": 4508,
  "ĠPlan": 4509,
  "works": 4510,
  "ooth": 4511,
  "Ġcorner": 4512,
  "Ġhusband": 4513,
  "Ġinternet": 4514,
  "ems": 4515,
  "osen": 4516,
  "gen": 4517,
  "Ġbalance": 4518,
  "Ġsounds": 4519,
  "text": 4520,
  "Ġarr": 4521,
  "oves": 4522,
  "Ġmillions": 4523,
  "Ġradio": 4524,
  "ĠDam": 4525,
  "Mr": 4526,
  "Go": 4527,
  "Spe": 4528,
  "Ġcombat": 4529,
  "rant": 4530,
  "Ġfuel": 4531,
  "Ġdistance": 4532,
  "Ġtests": 4533,
  "Ġdecre": 4534,
  "ĠEr": 4535,
  "Ġmanaged": 4536,
  "DS": 4537,
  "Ġtit": 4538,
  "Ġmeasures": 4539,
  "Ġattend": 4540,
  "ashed": 4541,
  "ĠJose": 4542,
  "ĠNight": 4543,
  "ĠEnd": 4544,
  "outs": 4545,
  "Ġgeneration": 4546,
  "yth": 4547,
  "Ġconversation": 4548,
  "ĠSky": 4549,
  "active": 4550,
  "cel": 4551,
  "rier": 4552,
  "ĠFrank": 4553,
  "Ġgender": 4554,
  "Ġcarried": 4555,
  "anda": 4556,
  "Ġarrived": 4557,
  "aded": 4558,
  "Ġfailure": 4559,
  "Ġminimum": 4560,
  "lets": 4561,
  "Ġworst": 4562,
  "Ġkeeping": 4563,
  "Ġintended": 4564,
  "Ġillegal": 4565,
  "Ġdetermined": 4566,
  "Ġtrip": 4567,
  "Yes": 4568,
  "Ġraise": 4569,
  "Ġ~": 4570,
  "Ġfeels": 4571,
  "Ġpackage": 4572,
  "ĠJo": 4573,
  "hi": 4574,
  "2016": 4575,
  "real": 4576,
  "Ġfra": 4577,
  "Me": 4578,
  "ucky": 4579,
  "pret": 4580,
  "ĠEdit": 4581,
  "ĠWeb": 4582,
  "emic": 4583,
  "ĠColor": 4584,
  "Ġjustice": 4585,
  "Int": 4586,
  "Ġfarm": 4587,
  "cknow": 4588,
  "eless": 4589,
  "Ġreduced": 4590,
  "Ġ500": 4591,
  "ĠRad": 4592,
  "ĠWood": 4593,
  "Ġhyp": 4594,
  "iler": 4595,
  "ura": 4596,
  "kins": 4597,
  "ĠTheir": 4598,
  "ĠMary": 4599,
  "Ġnovel": 4600,
  "ĠWho": 4601,
  "Ġcapacity": 4602,
  "Ġimpossible": 4603,
  "Ġplays": 4604,
  "Ġminister": 4605,
  "icate": 4606,
  "ĠSet": 4607,
  "Ġing": 4608,
  "Ġcommunities": 4609,
  "ita": 4610,
  "Ġbon": 4611,
  "Ġstrateg": 4612,
  "Ġinterests": 4613,
  "lock": 4614,
  "gers": 4615,
  "mas": 4616,
  "ĠAND": 4617,
  "Ġconflict": 4618,
  "Ġrequirements": 4619,
  "Ġsac": 4620,
  "Ġoperating": 4621,
  "ini": 4622,
  "related": 4623,
  "Ġcommitted": 4624,
  "Ġrelatively": 4625,
  "Ġsouth": 4626,
  "Ġafford": 4627,
  "Ġidentity": 4628,
  "Ġdecisions": 4629,
  "Ġaccused": 4630,
  "place": 4631,
  "Ġvictory": 4632,
  "och": 4633,
  "Name": 4634,
  "Com": 4635,
  "tion": 4636,
  "eds": 4637,
  "Ġseek": 4638,
  "Ġtight": 4639,
  "ĠImages": 4640,
  "Ġhumans": 4641,
  "Ġfamiliar": 4642,
  "Ġaudience": 4643,
  "Ġinternal": 4644,
  "venture": 4645,
  "Ġsides": 4646,
  "ĠTO": 4647,
  "Ġdim": 4648,
  "ĠJim": 4649,
  "ĠCanadian": 4650,
  "Ġjoined": 4651,
  "Ġdifferences": 4652,
  "ĠLos": 4653,
  "Ġprotest": 4654,
  "Ġtwice": 4655,
  "win": 4656,
  "Ġglass": 4657,
  "arsh": 4658,
  "ĠArmy": 4659,
  "Ġexpression": 4660,
  "Ġdecide": 4661,
  "Ġplanning": 4662,
  "ania": 4663,
  "Ġhandle": 4664,
  "ĠNor": 4665,
  "Ġmaximum": 4666,
  "ĠRev": 4667,
  "Ġsea": 4668,
  "Ġhelps": 4669,
  "ref": 4670,
  "Ġbound": 4671,
  "Ġmouth": 4672,
  "Ġstandards": 4673,
  "Ġclim": 4674,
  "ĠCamp": 4675,
  "ĠFox": 4676,
  "cles": 4677,
  "Ġarmy": 4678,
  "acking": 4679,
  "xy": 4680,
  "SS": 4681,
  "Ġ42": 4682,
  "Ġbug": 4683,
  "ĠMax": 4684,
  "ĠJones": 4685,
  "ĠShow": 4686,
  "lo": 4687,
  "Ġplanet": 4688,
  "Ġ75": 4689,
  "Ġwinning": 4690,
  "Ġfaster": 4691,
  "Ġspect": 4692,
  "Ġbroken": 4693,
  "TR": 4694,
  "Ġdefined": 4695,
  "Ġhealthy": 4696,
  "Ġcompetition": 4697,
  "ĠIsland": 4698,
  "ĠFe": 4699,
  "Ġannounce": 4700,
  "ĠCup": 4701,
  "ĠInstead": 4702,
  "Ġclient": 4703,
  "Ġpossibly": 4704,
  "ocket": 4705,
  "look": 4706,
  "Ġfinish": 4707,
  "Ġcrew": 4708,
  "Ġeditor": 4709,
  "Ġhate": 4710,
  "Ġsale": 4711,
  "Ġpages": 4712,
  "wing": 4713,
  "Ġopposition": 4714,
  "Ġrefuge": 4715,
  "Ġflight": 4716,
  "Ġapart": 4717,
  "ĠLat": 4718,
  "ĠAfrica": 4719,
  "Ġapplications": 4720,
  "ĠBur": 4721,
  "Ġgar": 4722,
  "ĠSocial": 4723,
  "Ġshape": 4724,
  "Ġspeaking": 4725,
  "ao": 4726,
  "ĠSn": 4727,
  "Ġworry": 4728,
  "Please": 4729,
  "roud": 4730,
  "Ġhun": 4731,
  "Ġintroduced": 4732,
  "Ġdiet": 4733,
  "Ind": 4734,
  "ĠSecond": 4735,
  "Ġfunctions": 4736,
  "uts": 4737,
  "ĠEach": 4738,
  "ĠJeff": 4739,
  "Ġstress": 4740,
  "ĠAnn": 4741,
  "Ġhonest": 4742,
  "Ġtree": 4743,
  "ĠAfrican": 4744,
  "ĠBush": 4745,
  "Ġsch": 4746,
  "ĠOnly": 4747,
  "Ġfif": 4748,
  "igan": 4749,
  "Ġexercise": 4750,
  "ĠExp": 4751,
  "Ġscientists": 4752,
  "ĠWork": 4753,
  "ĠSpr": 4754,
  "ĠHuman": 4755,
  "Ġsurvey": 4756,
  "Ġrich": 4757,
  "rip": 4758,
  "Ġmaintain": 4759,
  "Ġflo": 4760,
  "Ġleadership": 4761,
  "stream": 4762,
  "Ġmagic": 4763,
  "Ġfigures": 4764,
  "inder": 4765,
  "ĠDead": 4766,
  "Ġabsolutely": 4767,
  "Ġfourth": 4768,
  "Ġpresented": 4769,
  "rible": 4770,
  "Ġalcohol": 4771,
  "ato": 4772,
  "Ġgrab": 4773,
  "ĠPhoto": 4774,
  "Ġplus": 4775,
  "rick": 4776,
  "arks": 4777,
  "Ġalternative": 4778,
  "Ġpil": 4779,
  "that": 4780,
  "Ġobjects": 4781,
  "ĠRo": 4782,
  "Ġsignificantly": 4783,
  "ĠRoad": 4784,
  "kay": 4785,
  "Read": 4786,
  "ĠSing": 4787,
  "Or": 4788,
  "ĠMont": 4789,
  "Ġuns": 4790,
  "Ġnegoti": 4791,
  "ĠArch": 4792,
  "iki": 4793,
  "Ġtelevision": 4794,
  "ĠJewish": 4795,
  "Ġcommittee": 4796,
  "Ġmotor": 4797,
  "Ġappearance": 4798,
  "Ġsitting": 4799,
  "Ġstrike": 4800,
  "ĠDown": 4801,
  "comp": 4802,
  "ĠHist": 4803,
  "Ġfold": 4804,
  "ĠLouis": 4805,
  "Ġbelong": 4806,
  "Ġmort": 4807,
  "Ġprepared": 4808,
  "Ġ64": 4809,
  "ĠMaster": 4810,
  "Ġindeed": 4811,
  "ĠDen": 4812,
  "Ġrent": 4813,
  "TA": 4814,
  "ourney": 4815,
  "arc": 4816,
  "Su": 4817,
  "97": 4818,
  "Ġadvice": 4819,
  "Ġchanging": 4820,
  "Ġlisted": 4821,
  "Ġlaunched": 4822,
  "isation": 4823,
  "ĠPeter": 4824,
  "ishes": 4825,
  "Ġlived": 4826,
  "ĠMel": 4827,
  "ĠSupreme": 4828,
  "ructure": 4829,
  "Ġsets": 4830,
  "uous": 4831,
  "ĠÂł": 4832,
  "Ġapplied": 4833,
  "ĠNOT": 4834,
  "ĠMount": 4835,
  "Ġodd": 4836,
  "DA": 4837,
  "Ġ?": 4838,
  "olved": 4839,
  "Ġpowers": 4840,
  "Ġthr": 4841,
  "Ġremaining": 4842,
  "ĠWater": 4843,
  "LC": 4844,
  "Ġcauses": 4845,
  "Ġmanner": 4846,
  "ads": 4847,
  "Ġsuggests": 4848,
  "Ġends": 4849,
  "standing": 4850,
  "fig": 4851,
  "Ġgay": 4852,
  "ĠAngeles": 4853,
  "Ġscientific": 4854,
  "Ġcoal": 4855,
  "apers": 4856,
  "bar": 4857,
  "ĠThomas": 4858,
  "Ġsym": 4859,
  "ĠRun": 4860,
  "this": 4861,
  "Ġminute": 4862,
  "Ġleaves": 4863,
  "Ġcompleted": 4864,
  "amin": 4865,
  "Ġfocused": 4866,
  "Ġmonitor": 4867,
  "Ġvehicles": 4868,
  "MA": 4869,
  "ĠMass": 4870,
  "ĠGrand": 4871,
  "Ġaffected": 4872,
  "Ġconstruct": 4873,
  "Ġfollows": 4874,
  "Ġton": 4875,
  "reens": 4876,
  "Ġhomes": 4877,
  "ĠExt": 4878,
  "rast": 4879,
  "ĠIr": 4880,
  "ĠJoe": 4881,
  "Ġvotes": 4882,
  "alls": 4883,
  "Ġbusinesses": 4884,
  "ĠCentral": 4885,
  "Ġyards": 4886,
  "Ġmaterials": 4887,
  "Ġguide": 4888,
  "Ġcloser": 4889,
  "ums": 4890,
  "Ġsports": 4891,
  "eder": 4892,
  "Just": 4893,
  "Ġtaxes": 4894,
  "ĠOld": 4895,
  "ola": 4896,
  "Ġdropped": 4897,
  "Ġdelay": 4898,
  "Ġsecure": 4899,
  "level": 4900,
  "Ġtreated": 4901,
  "Ġfiled": 4902,
  "aine": 4903,
  "Ġvan": 4904,
  "Ġmir": 4905,
  "Ġcolumn": 4906,
  "icted": 4907,
  "eper": 4908,
  "Ġrot": 4909,
  "Ġconsult": 4910,
  "Ġentry": 4911,
  "ĠDou": 4912,
  "Ġapparently": 4913,
  "oking": 4914,
  "Ġincreases": 4915,
  "ano": 4916,
  "Ġspecifically": 4917,
  "Ġtele": 4918,
  "Ġreligion": 4919,
  "Ġframe": 4920,
  "ĠNote": 4921,
  "ĠLee": 4922,
  "Ġhelping": 4923,
  "Ġedge": 4924,
  "oston": 4925,
  "Ġorganizations": 4926,
  "ĠBoth": 4927,
  "hips": 4928,
  "Ġbigger": 4929,
  "Ġboost": 4930,
  "ĠStand": 4931,
  "Ġrow": 4932,
  "uls": 4933,
  "Ġrid": 4934,
  "Let": 4935,
  "aren": 4936,
  "rave": 4937,
  "Ġstret": 4938,
  "Ġvision": 4939,
  "Ġwearing": 4940,
  "Ġappreci": 4941,
  "Ġaward": 4942,
  "ĠUse": 4943,
  "Ġfactor": 4944,
  "war": 4945,
  "Ġgod": 4946,
  "asts": 4947,
  "Ġenemies": 4948,
  "ĠGames": 4949,
  "FF": 4950,
  "Ġaccident": 4951,
  "Well": 4952,
  "ĠMartin": 4953,
  "TER": 4954,
  "Ġath": 4955,
  "ĠHell": 4956,
  "Ġforg": 4957,
  "free": 4958,
  "Ġstars": 4959,
  "Ġexpensive": 4960,
  "rawn": 4961,
  "ĠWhe": 4962,
  "Ġlock": 4963,
  "Ġformat": 4964,
  "Ġsoldiers": 4965,
  "sm": 4966,
  "Ġagent": 4967,
  "Ġresponsibility": 4968,
  "ora": 4969,
  "ĠScience": 4970,
  "Ġrapid": 4971,
  "Ġtough": 4972,
  "ĠJesus": 4973,
  "Ġbelieves": 4974,
  "Ġwear": 4975,
  "ĠDri": 4976,
  "ĠBob": 4977,
  "Oh": 4978,
  "aped": 4979,
  "Ġwarm": 4980,
  "Ġhasn": 4981,
  "uster": 4982,
  "Ġking": 4983,
  "ologies": 4984,
  "ĠTem": 4985,
  "ĠMos": 4986,
  "Ġpatient": 4987,
  "ĠMexico": 4988,
  "cean": 4989,
  "ĠDeath": 4990,
  "ĠSanders": 4991,
  "you": 4992,
  "ĠCast": 4993,
  "ĠCompany": 4994,
  "pty": 4995,
  "Ġhappening": 4996,
  "Ġbought": 4997,
  "Am": 4998,
  "Mod": 4999,
  "Us": 5000,
  "ĠCre": 5001,
  "ĠThose": 5002,
  "iser": 5003,
  "Ġsoul": 5004,
  "ĠTop": 5005,
  "ĠHarry": 5006,
  "ĠAw": 5007,
  "Ġseat": 5008,
  "ffee": 5009,
  "Ġrevolution": 5010,
  "Ġ(\"": 5011,
  "ĠDuring": 5012,
  "ette": 5013,
  "Ġring": 5014,
  "Ġoffensive": 5015,
  "Ġreturns": 5016,
  "Ġvideos": 5017,
  "Ġfamous": 5018,
  "enced": 5019,
  "ĠSign": 5020,
  "ĠRiver": 5021,
  "Ġ300": 5022,
  "PM": 5023,
  "ĠBus": 5024,
  "ĠCH": 5025,
  "Ġcandidates": 5026,
  "arden": 5027,
  "Ġvisual": 5028,
  "Ġthank": 5029,
  "Ġtrouble": 5030,
  "Ġprove": 5031,
  "ashion": 5032,
  "ĠLong": 5033,
  "UM": 5034,
  "Ġconnected": 5035,
  "Ġpossibility": 5036,
  "Over": 5037,
  "Ġexpert": 5038,
  "Ġlibrary": 5039,
  "arts": 5040,
  "Ġfellow": 5041,
  "irty": 5042,
  "Ġdry": 5043,
  "Ġsigns": 5044,
  "ĠLove": 5045,
  "Ġquiet": 5046,
  "foot": 5047,
  "Ġpure": 5048,
  "Ġfilled": 5049,
  "ĠElect": 5050,
  "ĠExpl": 5051,
  "Ġunable": 5052,
  "ns": 5053,
  "mo": 5054,
  "Ġvast": 5055,
  "obe": 5056,
  "Ġidentify": 5057,
  "apping": 5058,
  "ĠCarolina": 5059,
  "Ġfish": 5060,
  "Ġcircumstances": 5061,
  "razy": 5062,
  "Ġbodies": 5063,
  "ĠMur": 5064,
  "Ġdeveloping": 5065,
  "Ġexperienced": 5066,
  "ĠBoard": 5067,
  "esome": 5068,
  "Ġcombined": 5069,
  "ĠPut": 5070,
  "Ġchemical": 5071,
  "ĠChild": 5072,
  "Ġpool": 5073,
  "ĠCy": 5074,
  "Ġegg": 5075,
  "cons": 5076,
  "sters": 5077,
  "Ġhurt": 5078,
  "Ġmarkets": 5079,
  "Ġconservative": 5080,
  "Ġsupporters": 5081,
  "urb": 5082,
  "ye": 5083,
  "ĠAp": 5084,
  "dule": 5085,
  "Ġtemperature": 5086,
  "Ġconducted": 5087,
  "ĠChief": 5088,
  "Ġpulled": 5089,
  "Last": 5090,
  "onto": 5091,
  "osis": 5092,
  "VER": 5093,
  "Des": 5094,
  "ĠPan": 5095,
  "First": 5096,
  "Ġadvance": 5097,
  "Ġlicense": 5098,
  "rors": 5099,
  "ĠJon": 5100,
  "Ġimagine": 5101,
  "Ġhell": 5102,
  "Ġfixed": 5103,
  "osite": 5104,
  "ĠLog": 5105,
  "icken": 5106,
  "Ġsurprise": 5107,
  "hab": 5108,
  "Ġcraft": 5109,
  "olt": 5110,
  "ĠJul": 5111,
  "Ġdial": 5112,
  "Ġentered": 5113,
  "Ġleads": 5114,
  "ĠClean": 5115,
  "Ġpictures": 5116,
  "essor": 5117,
  "Ġalt": 5118,
  "Ġpaying": 5119,
  "Per": 5120,
  "ĠMarket": 5121,
  "Ġupdates": 5122,
  "amily": 5123,
  "ĠHome": 5124,
  "Ġ55": 5125,
  "rome": 5126,
  "Ġgreatest": 5127,
  "Ġheight": 5128,
  "Ġheav": 5129,
  "aints": 5130,
  "Ġlisten": 5131,
  "aser": 5132,
  "ĠSH": 5133,
  "Ġcapable": 5134,
  "acle": 5135,
  "inating": 5136,
  "Ġoffering": 5137,
  "abin": 5138,
  "Ġbright": 5139,
  "alty": 5140,
  "arrow": 5141,
  "inding": 5142,
  "acked": 5143,
  "ĠAnother": 5144,
  "ĠVirginia": 5145,
  "ĠLu": 5146,
  "Ġplanned": 5147,
  "Ġpit": 5148,
  "Ġsweet": 5149,
  "ĠDi": 5150,
  "ĠFrancisco": 5151,
  "Ġprospect": 5152,
  "ĠDan": 5153,
  "Ġteen": 5154,
  "rees": 5155,
  "Ġhol": 5156,
  "Ġscr": 5157,
  "Ġlots": 5158,
  "life": 5159,
  "Ġforget": 5160,
  "ĠNone": 5161,
  "ĠMiddle": 5162,
  "ĠRyan": 5163,
  "edd": 5164,
  "Ġsevere": 5165,
  "Ġsuit": 5166,
  "ller": 5167,
  "uations": 5168,
  "Ġflag": 5169,
  "game": 5170,
  "rid": 5171,
  "ĠData": 5172,
  "ĠEnter": 5173,
  "suit": 5174,
  "ghan": 5175,
  "ĠMen": 5176,
  "Ġthoughts": 5177,
  "Ġmatters": 5178,
  "Ġadapt": 5179,
  "ĠAri": 5180,
  "Ġfill": 5181,
  "Ġforth": 5182,
  "Ġsam": 5183,
  "Ġ41": 5184,
  "Ġpayment": 5185,
  "ĠHor": 5186,
  "Ġspring": 5187,
  "Ġlosing": 5188,
  "Ġbringing": 5189,
  "FO": 5190,
  "ala": 5191,
  "hered": 5192,
  "bour": 5193,
  "oma": 5194,
  "Ġcombination": 5195,
  "Ġplenty": 5196,
  "VE": 5197,
  "Can": 5198,
  "ĠSpecial": 5199,
  "Ġtow": 5200,
  "Ġseeking": 5201,
  "Ġexamples": 5202,
  "Ġclasses": 5203,
  "cr": 5204,
  "Ġbeer": 5205,
  "Ġmoves": 5206,
  "ĠKn": 5207,
  "Ġpanel": 5208,
  "Even": 5209,
  "Ġproperly": 5210,
  "Ġplug": 5211,
  "Every": 5212,
  "Ġdefensive": 5213,
  "Ġvolume": 5214,
  "Ġpositions": 5215,
  "Ġlinks": 5216,
  "ĠWeek": 5217,
  "Ġtransform": 5218,
  "ker": 5219,
  "Ġcas": 5220,
  "Ġopponent": 5221,
  "Ġtweet": 5222,
  "Ġshop": 5223,
  "Ġfly": 5224,
  "Ġtalks": 5225,
  "Ġbag": 5226,
  "Phone": 5227,
  "Ġaid": 5228,
  "Ġplants": 5229,
  "Ġ65": 5230,
  "quest": 5231,
  "ĠMagic": 5232,
  "Ġbegins": 5233,
  "Ġmyster": 5234,
  "Ġstorage": 5235,
  "Ġmarg": 5236,
  "Ġske": 5237,
  "Ġmetal": 5238,
  "elly": 5239,
  "Ġordered": 5240,
  "Ġremained": 5241,
  "Ġloved": 5242,
  "Ġprompt": 5243,
  "Ġupdated": 5244,
  "Ġexperts": 5245,
  "Ġwalking": 5246,
  "Ġancient": 5247,
  "Ġperformed": 5248,
  "ATE": 5249,
  "Ġneither": 5250,
  "Ġselected": 5251,
  "Ġmine": 5252,
  "Ġultimately": 5253,
  "Ġlabel": 5254,
  "ĠServices": 5255,
  "Trump": 5256,
  "Ġsyn": 5257,
  "SC": 5258,
  "Ġmeat": 5259,
  "Ġgiant": 5260,
  "ĠWars": 5261,
  "ĠON": 5262,
  "Ġadm": 5263,
  "Ġevening": 5264,
  "Ġevil": 5265,
  "ĠWild": 5266,
  "ĠÃ": 5267,
  "ĠAmazon": 5268,
  "Dr": 5269,
  "Ġobviously": 5270,
  "Ġadvanced": 5271,
  "Photo": 5272,
  "olar": 5273,
  "Ġweather": 5274,
  "Ġsymbol": 5275,
  "Ġsole": 5276,
  "Ġpotentially": 5277,
  "oster": 5278,
  "Ġoriginally": 5279,
  "mun": 5280,
  "aze": 5281,
  "Ġdeck": 5282,
  "Ġstood": 5283,
  "Ġyouth": 5284,
  "ĠBern": 5285,
  "Rep": 5286,
  "ĠTest": 5287,
  "Ġbasically": 5288,
  "Ġinvolve": 5289,
  "lyn": 5290,
  "See": 5291,
  "Ġaircraft": 5292,
  "Ġconfirm": 5293,
  "EW": 5294,
  "Ġmessages": 5295,
  "ĠRichard": 5296,
  "Ġkit": 5297,
  "isters": 5298,
  "Ġexistence": 5299,
  "Ġturning": 5300,
  "ĠSP": 5301,
  "Ġdesire": 5302,
  "Ġflat": 5303,
  "Ġment": 5304,
  "season": 5305,
  "anges": 5306,
  "Ġneighborhood": 5307,
  "ĠLake": 5308,
  "ATION": 5309,
  "Ġpointed": 5310,
  "bur": 5311,
  "Ġinnov": 5312,
  "ucks": 5313,
  "UL": 5314,
  "Ġprofessor": 5315,
  "Ġexpressed": 5316,
  "AB": 5317,
  "icious": 5318,
  "ĠDev": 5319,
  "Ġsession": 5320,
  "Ġbare": 5321,
  "sen": 5322,
  "Ġdiss": 5323,
  "ĠCath": 5324,
  "ĠPass": 5325,
  "ĠPoint": 5326,
  "Ġdoctor": 5327,
  "orrow": 5328,
  "ailed": 5329,
  "ĠRub": 5330,
  "ĠCharl": 5331,
  "person": 5332,
  "Ġwriter": 5333,
  "ighters": 5334,
  "Ġoblig": 5335,
  "Ġrecorded": 5336,
  "Ġbroke": 5337,
  "Ġorders": 5338,
  "ilty": 5339,
  "Ġmotion": 5340,
  "law": 5341,
  "adium": 5342,
  "Ġimmigration": 5343,
  "Ġcontrast": 5344,
  "Ġexcellent": 5345,
  "Ġtechnical": 5346,
  "ami": 5347,
  "Ġtun": 5348,
  "Ġcloud": 5349,
  "ĠYear": 5350,
  "geon": 5351,
  "Ġcreation": 5352,
  "Ġstrange": 5353,
  "Ġfort": 5354,
  "born": 5355,
  "Ġextent": 5356,
  "ĠToday": 5357,
  "ĠClub": 5358,
  "Ġrain": 5359,
  "Ġsample": 5360,
  "Ġaccepted": 5361,
  "Ġtact": 5362,
  "Ġfired": 5363,
  "ĠSon": 5364,
  "Ġstands": 5365,
  "Ġboot": 5366,
  "Ġversions": 5367,
  "Ġselling": 5368,
  "ounded": 5369,
  "Ġweren": 5370,
  "ĠWatch": 5371,
  "Ġexperiment": 5372,
  "Post": 5373,
  "uled": 5374,
  "Inst": 5375,
  "unte": 5376,
  "Ġdepart": 5377,
  "Ġbond": 5378,
  "ivery": 5379,
  "Ġreaction": 5380,
  "ĠPac": 5381,
  "apped": 5382,
  "aniel": 5383,
  "Ġresolution": 5384,
  "Ġreact": 5385,
  "Ġapproved": 5386,
  "mond": 5387,
  "---": 5388,
  "Ġreplace": 5389,
  "Ġtack": 5390,
  "Ġsport": 5391,
  "Ġchain": 5392,
  "Ġemergency": 5393,
  "rad": 5394,
  "Ġautomatically": 5395,
  "Ġroute": 5396,
  "Ġpal": 5397,
  "Ġbanks": 5398,
  "ĠParis": 5399,
  "road": 5400,
  "icing": 5401,
  "ixt": 5402,
  "isted": 5403,
  "Ġgrew": 5404,
  "ĠWhere": 5405,
  "Ġsubs": 5406,
  "Ġselection": 5407,
  "noon": 5408,
  "cs": 5409,
  "cluding": 5410,
  "ĠIts": 5411,
  "Ġslowly": 5412,
  "ĠEgypt": 5413,
  "ĠAcc": 5414,
  "iques": 5415,
  "EX": 5416,
  "Ġattempts": 5417,
  "url": 5418,
  "ĠCross": 5419,
  "Ġfindings": 5420,
  "ĠSC": 5421,
  "ĠOR": 5422,
  "Ġindex": 5423,
  "ĠWay": 5424,
  "ĠLand": 5425,
  "Ġshock": 5426,
  "dis": 5427,
  "Ġdynam": 5428,
  "Ġcart": 5429,
  "Since": 5430,
  "iest": 5431,
  "ĠBoy": 5432,
  "Ġstorm": 5433,
  "hew": 5434,
  "Ġessential": 5435,
  "Other": 5436,
  "ivered": 5437,
  "Ġreasonable": 5438,
  "Act": 5439,
  "ĠPack": 5440,
  "ĠFort": 5441,
  "Ġconsidering": 5442,
  "Ġuniversity": 5443,
  "log": 5444,
  "Ġmarried": 5445,
  "ĠTrue": 5446,
  "Ġnumerous": 5447,
  "Ġseriously": 5448,
  "Ġreferred": 5449,
  "ua": 5450,
  "Ġconsistent": 5451,
  "onna": 5452,
  "ĠReal": 5453,
  "Ġfacts": 5454,
  "otes": 5455,
  "erg": 5456,
  "Then": 5457,
  "Ġaccompl": 5458,
  "Note": 5459,
  "Ġpassing": 5460,
  "Ġmal": 5461,
  "een": 5462,
  "ĠYet": 5463,
  "Ġgather": 5464,
  "terday": 5465,
  "ework": 5466,
  "Pe": 5467,
  "Ġoptim": 5468,
  "Ġrub": 5469,
  "Ġunknown": 5470,
  "stone": 5471,
  "Ġunion": 5472,
  "olve": 5473,
  "Ġopportunities": 5474,
  "ĠWal": 5475,
  "ĠCost": 5476,
  "Ġreporting": 5477,
  "sts": 5478,
  "pet": 5479,
  "Ġsand": 5480,
  "Ġsuddenly": 5481,
  "Ġsurprising": 5482,
  "ĠVR": 5483,
  "Ġsomewhat": 5484,
  "ĠBas": 5485,
  "ulture": 5486,
  "izz": 5487,
  "ĠCD": 5488,
  "Ġchallenges": 5489,
  "Ġsettings": 5490,
  "Ġexperiences": 5491,
  "ĠFull": 5492,
  "Ġreceiving": 5493,
  "EST": 5494,
  "Ġjoint": 5495,
  "Ġcultural": 5496,
  "Ġast": 5497,
  "ceived": 5498,
  "ĠCru": 5499,
  "Ġbull": 5500,
  "pired": 5501,
  "amm": 5502,
  "Ġfacing": 5503,
  "power": 5504,
  "Ġboss": 5505,
  "ĠHol": 5506,
  "Ġincreasingly": 5507,
  "Ġshift": 5508,
  "Ġstreets": 5509,
  "ĠWilliams": 5510,
  "abb": 5511,
  "Ġlie": 5512,
  "Ġlaugh": 5513,
  "ĠCa": 5514,
  "PL": 5515,
  "Ġadults": 5516,
  "Ġcustomer": 5517,
  "Ġobtained": 5518,
  "Ġsupporting": 5519,
  "fire": 5520,
  "Ġdetailed": 5521,
  "Ġpicked": 5522,
  "ĠRight": 5523,
  "lder": 5524,
  "EE": 5525,
  "stood": 5526,
  "ĠKim": 5527,
  "Ġwire": 5528,
  "Ġsight": 5529,
  "Ġpersons": 5530,
  "Ġsad": 5531,
  "Ġcup": 5532,
  "Ġwarning": 5533,
  "Ġboys": 5534,
  "long": 5535,
  "Ġbird": 5536,
  "fo": 5537,
  "Ġwal": 5538,
  "Ġobserved": 5539,
  "Ġzone": 5540,
  "iveness": 5541,
  "Ġchannel": 5542,
  "Ġrefused": 5543,
  "ĠAgain": 5544,
  "Ġsuc": 5545,
  "ĠRef": 5546,
  "ĠSher": 5547,
  "Ġacts": 5548,
  "ĠName": 5549,
  "Ġstruggle": 5550,
  "arry": 5551,
  "Ġcategory": 5552,
  "Ġrealize": 5553,
  "Ġemployee": 5554,
  "Ġguns": 5555,
  "ĠSteve": 5556,
  "ĠMot": 5557,
  "ĠOl": 5558,
  "oked": 5559,
  "Ġthick": 5560,
  "Ġfairly": 5561,
  "illy": 5562,
  "Ġsurve": 5563,
  "ĠMat": 5564,
  "weight": 5565,
  "Ġtroops": 5566,
  "Ġagents": 5567,
  "Ġbattery": 5568,
  "Ġmotiv": 5569,
  "Ã¡": 5570,
  "Sec": 5571,
  "den": 5572,
  "Ġflu": 5573,
  "Ġconfident": 5574,
  "ĠOper": 5575,
  "Ġempty": 5576,
  "Ġsector": 5577,
  "Ġexcited": 5578,
  "Ġremote": 5579,
  "aph": 5580,
  "Ġdestroyed": 5581,
  "Ġmoral": 5582,
  "ĠRon": 5583,
  "Ġdress": 5584,
  "ĠBat": 5585,
  "Ġlit": 5586,
  "Ġaf": 5587,
  "rum": 5588,
  "isms": 5589,
  "Ġshouldn": 5590,
  "hetic": 5591,
  "Ġcarbon": 5592,
  "Ġinstalled": 5593,
  "Ġviolent": 5594,
  "Ġsolar": 5595,
  "ja": 5596,
  "Ġpractices": 5597,
  "Ġride": 5598,
  "ĠPenn": 5599,
  "Ġimproved": 5600,
  "Ġaudio": 5601,
  "Ġeating": 5602,
  "pass": 5603,
  "claim": 5604,
  "uated": 5605,
  "angers": 5606,
  "chen": 5607,
  "Ġproperties": 5608,
  "Ġanywhere": 5609,
  "Another": 5610,
  "Ġblow": 5611,
  "ĠJackson": 5612,
  "Ġproud": 5613,
  "Ġplane": 5614,
  "lines": 5615,
  "Ġsquare": 5616,
  "Ġproof": 5617,
  "Ġtalked": 5618,
  "makers": 5619,
  "Ġsister": 5620,
  "Ġholds": 5621,
  "Ġresident": 5622,
  "Ġresistance": 5623,
  "Ġsplit": 5624,
  "Ġconfidence": 5625,
  "resents": 5626,
  "Ġcuts": 5627,
  "Ġexception": 5628,
  "Ġzero": 5629,
  "Ġtotally": 5630,
  "ĠAustralian": 5631,
  "Ġsick": 5632,
  "Ġ150": 5633,
  "Ġhousehold": 5634,
  "Ġfees": 5635,
  "Ġdrivers": 5636,
  "ogen": 5637,
  "Ġnecessarily": 5638,
  "Ġregulations": 5639,
  "earing": 5640,
  "sl": 5641,
  "Ġperspective": 5642,
  "care": 5643,
  "His": 5644,
  "Ġescape": 5645,
  "Ġsurprised": 5646,
  "ĠVan": 5647,
  "Ġvac": 5648,
  "ĠThus": 5649,
  "ĠChampions": 5650,
  "ĠIce": 5651,
  "Ġheads": 5652,
  "Ġcausing": 5653,
  "bel": 5654,
  "ĠMa": 5655,
  "Ġtargets": 5656,
  "cipl": 5657,
  "Ġafternoon": 5658,
  "Ġadds": 5659,
  "ĠMaybe": 5660,
  "ĠFour": 5661,
  "essed": 5662,
  "Ġusual": 5663,
  "cho": 5664,
  "ĠEnergy": 5665,
  "OO": 5666,
  "Ġarticles": 5667,
  "Ġinjured": 5668,
  "Ġmanage": 5669,
  "Ġexplains": 5670,
  "Rec": 5671,
  "Ġlinked": 5672,
  "Ġdiscussed": 5673,
  "Ġoccasion": 5674,
  "athan": 5675,
  "Ġopposite": 5676,
  "Ġfaces": 5677,
  "Ġdenied": 5678,
  "ĠKnight": 5679,
  "Ġnut": 5680,
  "Ġapproximately": 5681,
  "Ġdisappoint": 5682,
  "ĠBest": 5683,
  "ĠLo": 5684,
  "Ġdrag": 5685,
  "Ġnearby": 5686,
  "Ġguilty": 5687,
  "Ġconver": 5688,
  "Pre": 5689,
  "ship": 5690,
  "Ġreward": 5691,
  "ugh": 5692,
  "Ġapps": 5693,
  "friend": 5694,
  "Ġupper": 5695,
  "Ġadvert": 5696,
  "Ġsnow": 5697,
  "Ġfrust": 5698,
  "Ġourselves": 5699,
  "Fr": 5700,
  "Ġdismiss": 5701,
  "Ġcere": 5702,
  "Ġsignal": 5703,
  "from": 5704,
  "Ġ).": 5705,
  "Ġ52": 5706,
  "Ġcrimes": 5707,
  "itors": 5708,
  "estival": 5709,
  "useum": 5710,
  "Ġcouncil": 5711,
  "May": 5712,
  "ĠGun": 5713,
  "ician": 5714,
  "Ġsufficient": 5715,
  "ĠHen": 5716,
  "Ġhistorical": 5717,
  "ĠFar": 5718,
  "ĠTurn": 5719,
  "Ġpin": 5720,
  "Ġsucceed": 5721,
  "mat": 5722,
  "Ġtradition": 5723,
  "ĠOk": 5724,
  "Ġcro": 5725,
  "Ġdescription": 5726,
  "alle": 5727,
  "Ġsky": 5728,
  "Te": 5729,
  "Ġwidely": 5730,
  "Ġwave": 5731,
  "Ġdefinition": 5732,
  "Ġcycle": 5733,
  "Ġbrings": 5734,
  "usal": 5735,
  "Ġalive": 5736,
  "Ġfrequently": 5737,
  "Ġintention": 5738,
  "ĠControl": 5739,
  "Ġprivacy": 5740,
  "gent": 5741,
  "rence": 5742,
  "ĠQuest": 5743,
  "ĠChristmas": 5744,
  "Ġrail": 5745,
  "Ġcooper": 5746,
  "Ġtested": 5747,
  "ĠCapt": 5748,
  "asks": 5749,
  "Ġcomfortable": 5750,
  "Ġdelivered": 5751,
  "scape": 5752,
  "Ġdepth": 5753,
  "Ġwrites": 5754,
  "Ġassets": 5755,
  "Ġsav": 5756,
  "iments": 5757,
  "Ġtransition": 5758,
  "Ġartist": 5759,
  "ĠLook": 5760,
  "Ġlob": 5761,
  "Ġcomponents": 5762,
  "arity": 5763,
  "Ġwalked": 5764,
  "Ġroot": 5765,
  "Ġparticipants": 5766,
  "Ġnoticed": 5767,
  "Ġresc": 5768,
  "Ġnav": 5769,
  "da": 5770,
  "plate": 5771,
  "Ġimportance": 5772,
  "Ġassert": 5773,
  "iously": 5774,
  "Ġinjuries": 5775,
  "ĠCheck": 5776,
  "Ġregistered": 5777,
  "Ġintent": 5778,
  "Ġmissed": 5779,
  "Ġsentence": 5780,
  "Ġassistance": 5781,
  "evin": 5782,
  "Ġbuildings": 5783,
  "Ġclassic": 5784,
  "Ġthinks": 5785,
  "Pr": 5786,
  "ugg": 5787,
  "Ġfee": 5788,
  "pan": 5789,
  "Ġeffectively": 5790,
  "Ġbear": 5791,
  "Ġchapter": 5792,
  "Ġdogs": 5793,
  "Ġlatter": 5794,
  "Ġadmitted": 5795,
  "TV": 5796,
  "ĠGeorg": 5797,
  "Ġposts": 5798,
  "Ġlawyer": 5799,
  "Ġmand": 5800,
  "Ġcontrolled": 5801,
  "ĠWalk": 5802,
  "ĠAndrew": 5803,
  "Ġmenu": 5804,
  "amental": 5805,
  "Ġprotected": 5806,
  "va": 5807,
  "oral": 5808,
  "Ġrein": 5809,
  "ĠSar": 5810,
  "Ġamounts": 5811,
  "Ġnative": 5812,
  "ĠMoon": 5813,
  "Ġrepresents": 5814,
  "Ġabandon": 5815,
  "Ġcarrying": 5816,
  "Ġtank": 5817,
  "mary": 5818,
  "Ġdeclared": 5819,
  "Tube": 5820,
  "Ġhat": 5821,
  "Ġpunish": 5822,
  "mes": 5823,
  "Ġuniverse": 5824,
  "ĠRod": 5825,
  "phy": 5826,
  "ownt": 5827,
  "ca": 5828,
  "ĠMake": 5829,
  "Ġhardware": 5830,
  "Ġcoffee": 5831,
  "Rel": 5832,
  "bal": 5833,
  "world": 5834,
  "ĠSaf": 5835,
  "ĠSea": 5836,
  "inals": 5837,
  "Ġowned": 5838,
  "Ġhall": 5839,
  "Ġdescribe": 5840,
  "ĠPot": 5841,
  "Ġportion": 5842,
  "Ġdepending": 5843,
  "Ġtrick": 5844,
  "awa": 5845,
  "ĠLine": 5846,
  "ĠVis": 5847,
  "ĠHard": 5848,
  "ĠOrig": 5849,
  "ĠClick": 5850,
  "Ġdesk": 5851,
  "ĠValley": 5852,
  "Ġmovies": 5853,
  "Ġremark": 5854,
  "Ġmail": 5855,
  "Ġconscious": 5856,
  "Ġruling": 5857,
  "Ġmedic": 5858,
  "hent": 5859,
  "Ġreplaced": 5860,
  "ĠThanks": 5861,
  "Ġrenew": 5862,
  "ĠBall": 5863,
  "iform": 5864,
  "Ġshots": 5865,
  "Ġarmed": 5866,
  "Ġconstant": 5867,
  "Ġtaste": 5868,
  "Ġrealized": 5869,
  "Ġbuff": 5870,
  "Ġmo": 5871,
  "Ġefficient": 5872,
  "Most": 5873,
  "oration": 5874,
  "Ġcommunication": 5875,
  "Ġflood": 5876,
  "Ġconsequences": 5877,
  "Ġanyway": 5878,
  "igg": 5879,
  "ĠThank": 5880,
  "Ġiron": 5881,
  "ĠCop": 5882,
  "Ġ95": 5883,
  "Ġrelationships": 5884,
  "adel": 5885,
  "ĠYoung": 5886,
  "Ġproposal": 5887,
  "ayers": 5888,
  "ĠHot": 5889,
  "ORE": 5890,
  "cos": 5891,
  "Ġcollabor": 5892,
  "axy": 5893,
  "Ġknowing": 5894,
  "Ġsupports": 5895,
  "owed": 5896,
  "Ġcontrols": 5897,
  "Ġmerely": 5898,
  "umer": 5899,
  "Ġathlet": 5900,
  "Ġfashion": 5901,
  "path": 5902,
  "Ġgift": 5903,
  "Ġera": 5904,
  "AND": 5905,
  "Ġkinds": 5906,
  "ĠKorean": 5907,
  "ulous": 5908,
  "Ġessentially": 5909,
  "nic": 5910,
  "Ġsuffered": 5911,
  "Ġhur": 5912,
  "Ġpromise": 5913,
  "Ġexcess": 5914,
  "Ġoverw": 5915,
  "erry": 5916,
  "ĠMs": 5917,
  "Ġstores": 5918,
  "Ġjourney": 5919,
  "Although": 5920,
  "Sub": 5921,
  "Ġrequests": 5922,
  "Ġtiny": 5923,
  "ĠFair": 5924,
  "ba": 5925,
  "ĠYOU": 5926,
  "Ġcrash": 5927,
  "celer": 5928,
  "Ġemotional": 5929,
  "Ġgoods": 5930,
  "Ġblocks": 5931,
  "Ġisland": 5932,
  "Ġbroadcast": 5933,
  "Ġcheap": 5934,
  "Ġnations": 5935,
  "Ġseasons": 5936,
  "Ġwaste": 5937,
  "ĠSat": 5938,
  "Ġfields": 5939,
  "Ġauthors": 5940,
  "ALL": 5941,
  "ĠGra": 5942,
  "west": 5943,
  "ĠTy": 5944,
  "Ġdeaths": 5945,
  "Ġformed": 5946,
  "Ġdu": 5947,
  "Ġongoing": 5948,
  "elf": 5949,
  "Ġassume": 5950,
  "water": 5951,
  "Ġcoast": 5952,
  "Ġvoted": 5953,
  "gor": 5954,
  "ĠAS": 5955,
  "ĠArm": 5956,
  "iro": 5957,
  "Ġflex": 5958,
  "asters": 5959,
  "''": 5960,
  "Ġwelcome": 5961,
  "arl": 5962,
  "Ġlocations": 5963,
  "ĠFil": 5964,
  "Ġbuying": 5965,
  "Ġarchitect": 5966,
  "Ġharder": 5967,
  "ĠCub": 5968,
  "Ġrestaurant": 5969,
  "Ġdiscover": 5970,
  "Ġexceed": 5971,
  "Ġfavour": 5972,
  "gery": 5973,
  "Ġduty": 5974,
  "Ġpitch": 5975,
  "ador": 5976,
  "boy": 5977,
  "Ġresponded": 5978,
  "Ġextended": 5979,
  "hers": 5980,
  "Many": 5981,
  "raid": 5982,
  "ifer": 5983,
  "ĠIns": 5984,
  "Ser": 5985,
  "Ġmedium": 5986,
  "she": 5987,
  "ĠSports": 5988,
  "Ġmagazine": 5989,
  "Ġlimits": 5990,
  "ĠGall": 5991,
  "Ġexternal": 5992,
  "razil": 5993,
  "Ġyounger": 5994,
  "tle": 5995,
  "Ġremind": 5996,
  "ĠCON": 5997,
  "Ġimmediate": 5998,
  "Ġhidden": 5999,
  "Ġsimpl": 6000,
  "Ġphase": 6001,
  "dr": 6002,
  "Ġplot": 6003,
  "Ġexposure": 6004,
  "RI": 6005,
  "vin": 6006,
  "anish": 6007,
  "ĠEngine": 6008,
  "ĠPay": 6009,
  "Your": 6010,
  "Ġpushed": 6011,
  "ĠEll": 6012,
  "ĠHead": 6013,
  "Ġmarketing": 6014,
  "ĠAC": 6015,
  "Ġhits": 6016,
  "Ġgro": 6017,
  "ĠAge": 6018,
  "ĠScot": 6019,
  "Ġnarrow": 6020,
  "ĠGetty": 6021,
  "ĠTurkey": 6022,
  "Ġperfectly": 6023,
  "Ġenable": 6024,
  "utch": 6025,
  "Ġprecise": 6026,
  "Ġregime": 6027,
  "Ġshif": 6028,
  "gun": 6029,
  "div": 6030,
  "Ġchosen": 6031,
  "ĠKen": 6032,
  "Any": 6033,
  "Ġtrees": 6034,
  "Ġrecommended": 6035,
  "ĠRen": 6036,
  "uable": 6037,
  "Follow": 6038,
  "ĠHand": 6039,
  "Ġarguments": 6040,
  "Ġexists": 6041,
  "Ġbike": 6042,
  "Ġbreaking": 6043,
  "ĠGar": 6044,
  "Ġcrazy": 6045,
  "Ġvirtual": 6046,
  "Ġpermission": 6047,
  "Ġclosely": 6048,
  "called": 6049,
  "Ġ54": 6050,
  "Ġhopes": 6051,
  "Ġarray": 6052,
  "ĠWin": 6053,
  "ĠIre": 6054,
  "Ġpow": 6055,
  "Ġreaders": 6056,
  "Ġcreature": 6057,
  "Ġresulting": 6058,
  "Ġaccurate": 6059,
  "Ġmoments": 6060,
  "Ġargued": 6061,
  "Ġped": 6062,
  "During": 6063,
  "ĠTal": 6064,
  "Ġsought": 6065,
  "Ġsuffering": 6066,
  "Ġicon": 6067,
  "lee": 6068,
  "Â°": 6069,
  "Ġpra": 6070,
  "Ġbonus": 6071,
  "ko": 6072,
  "Ġacting": 6073,
  "DE": 6074,
  "fall": 6075,
  "Ġcomparison": 6076,
  "Ġsmooth": 6077,
  "upp": 6078,
  "ĠJoseph": 6079,
  "eping": 6080,
  "ĠTake": 6081,
  "ĠMid": 6082,
  "Ġsending": 6083,
  "fast": 6084,
  "ĠFall": 6085,
  "Ġdealing": 6086,
  "user": 6087,
  "ĠOrgan": 6088,
  "Co": 6089,
  "Ġattached": 6090,
  "Ġsees": 6091,
  "%.": 6092,
  "Ġtypical": 6093,
  "ART": 6094,
  "Ġfinds": 6095,
  "ĠAsia": 6096,
  "umin": 6097,
  "ĠEnt": 6098,
  "uce": 6099,
  "ĠBlood": 6100,
  "ĠNever": 6101,
  "Ġemails": 6102,
  "Ġhighlight": 6103,
  "Ġconfront": 6104,
  "atus": 6105,
  "uted": 6106,
  "Ġunus": 6107,
  "Ġtopic": 6108,
  "ĠAdam": 6109,
  "Ġble": 6110,
  "ati": 6111,
  "Ġunderstood": 6112,
  "Set": 6113,
  "Ġmob": 6114,
  "aa": 6115,
  "ĠStart": 6116,
  "pected": 6117,
  "sell": 6118,
  "Ġdedicated": 6119,
  "ĠCA": 6120,
  "uan": 6121,
  "Ġsongs": 6122,
  "Ġtech": 6123,
  "Ġaside": 6124,
  "Ġgrant": 6125,
  "sub": 6126,
  "Ġargue": 6127,
  "Ġcontaining": 6128,
  "Ġschedule": 6129,
  "Ġpublicly": 6130,
  "Ġheavily": 6131,
  "ĠUt": 6132,
  "iner": 6133,
  "ĠSection": 6134,
  "ĠCare": 6135,
  "weet": 6136,
  "ls": 6137,
  "Dis": 6138,
  "âĶĢ": 6139,
  "ĠFollow": 6140,
  "Back": 6141,
  "ĠIT": 6142,
  "ji": 6143,
  "ĠHit": 6144,
  "ested": 6145,
  "Ġeverybody": 6146,
  "Ġfacilities": 6147,
  "Comp": 6148,
  "core": 6149,
  "Ġanx": 6150,
  "Ġdivision": 6151,
  "ĠCam": 6152,
  "ĠStan": 6153,
  "mates": 6154,
  "Ġexplore": 6155,
  "Ġshares": 6156,
  "anes": 6157,
  "Ġideal": 6158,
  "eters": 6159,
  "ĠBase": 6160,
  "Ġplastic": 6161,
  "Ġdistinct": 6162,
  "ĠNetwork": 6163,
  "Ġtrading": 6164,
  "Ġinitially": 6165,
  "ĠFood": 6166,
  "Ġthousand": 6167,
  "ĠBusiness": 6168,
  "Ġparagraph": 6169,
  "Ġroughly": 6170,
  "Ġcreative": 6171,
  "ĠConf": 6172,
  "Ġconsumption": 6173,
  "Ġfilms": 6174,
  "agan": 6175,
  "Ġobtain": 6176,
  "Ġtall": 6177,
  "Ġtor": 6178,
  "Ġgrown": 6179,
  "alo": 6180,
  "KE": 6181,
  "Ġ400": 6182,
  "enders": 6183,
  "UG": 6184,
  "Ġwatched": 6185,
  "ĠList": 6186,
  "ali": 6187,
  "Ġsurrounding": 6188,
  "Ġpip": 6189,
  "Ġflying": 6190,
  "ordan": 6191,
  "Ġserving": 6192,
  "inations": 6193,
  "post": 6194,
  "Ġsho": 6195,
  "Av": 6196,
  "Ġjail": 6197,
  "zy": 6198,
  "Ġ1999": 6199,
  "Ġ</": 6200,
  "Ġliterally": 6201,
  "ĠSir": 6202,
  "Ġexposed": 6203,
  "Ġlies": 6204,
  "star": 6205,
  "Ġbat": 6206,
  "Ġearned": 6207,
  "ĠDig": 6208,
  "Ġspecified": 6209,
  "ĠSeason": 6210,
  "Ġdegrees": 6211,
  "Donald": 6212,
  "Ġcentre": 6213,
  "Ġsharing": 6214,
  "Ġwinter": 6215,
  "ĠCO": 6216,
  "Che": 6217,
  "Ġunw": 6218,
  "Ġfewer": 6219,
  "ĠMir": 6220,
  "Ġsomewhere": 6221,
  "ĠKey": 6222,
  "Ġattacked": 6223,
  "ĠKir": 6224,
  "Ġdomain": 6225,
  "Ġstronger": 6226,
  "Ġ99": 6227,
  "Ġpenalty": 6228,
  "Id": 6229,
  "Ġdeclined": 6230,
  "Ġneck": 6231,
  "Ġfraud": 6232,
  "Ġcurrency": 6233,
  "Ġrising": 6234,
  "Ġtab": 6235,
  "Ġtalent": 6236,
  "nam": 6237,
  "Ġvillage": 6238,
  "Ġlegs": 6239,
  "ĠNext": 6240,
  "Ed": 6241,
  "Ġacid": 6242,
  "Ġhyd": 6243,
  "Ġinvolving": 6244,
  "ĠBefore": 6245,
  "Fl": 6246,
  "Ġyesterday": 6247,
  "Ġterrorist": 6248,
  "Ġwest": 6249,
  "burg": 6250,
  "Ġvisible": 6251,
  "Ġstruck": 6252,
  "Ġawesome": 6253,
  "Ġdrawn": 6254,
  "Ġanswers": 6255,
  "ĠGirl": 6256,
  "ĠRam": 6257,
  "Ġthreats": 6258,
  "Ġdefeat": 6259,
  "Ġvent": 6260,
  "enda": 6261,
  "Ġrum": 6262,
  "%,": 6263,
  "case": 6264,
  "ĠHistory": 6265,
  "ĠYouTube": 6266,
  "Ġsituations": 6267,
  "ĠDNA": 6268,
  "Ste": 6269,
  "Ġsaved": 6270,
  "ologist": 6271,
  "Ġfaced": 6272,
  "Once": 6273,
  "ĠLi": 6274,
  "uh": 6275,
  "Ġmistake": 6276,
  "ĠBell": 6277,
  "Ġsymptoms": 6278,
  "Ġfalling": 6279,
  "Ġending": 6280,
  "ashes": 6281,
  "Ġmatches": 6282,
  "Ġexplanation": 6283,
  "Def": 6284,
  "Ġanymore": 6285,
  "ĠFOR": 6286,
  "ushed": 6287,
  "Ġletters": 6288,
  "Ġrisks": 6289,
  "ĠOK": 6290,
  "Ġplate": 6291,
  "Ġsubjects": 6292,
  "Ġattempted": 6293,
  "ifier": 6294,
  "iana": 6295,
  "Ġunlikely": 6296,
  "ĠThough": 6297,
  "uma": 6298,
  "ĠInvest": 6299,
  "ĠPrin": 6300,
  "ican": 6301,
  "ĠDar": 6302,
  "aug": 6303,
  "Ġveget": 6304,
  "aos": 6305,
  "ria": 6306,
  "Ġshel": 6307,
  "Ġmarked": 6308,
  "Ġspr": 6309,
  "po": 6310,
  "ĠLink": 6311,
  "ĠJr": 6312,
  "Ġtheme": 6313,
  "Ġpassion": 6314,
  "ĠPen": 6315,
  "Ġinfo": 6316,
  "izer": 6317,
  "apse": 6318,
  "cre": 6319,
  "ĠCharles": 6320,
  "ĠIreland": 6321,
  "ĠProv": 6322,
  "Ġdoctors": 6323,
  "Ġgranted": 6324,
  "Ġpaint": 6325,
  "Ġhonor": 6326,
  "Ġsmoke": 6327,
  "Ġpayments": 6328,
  "ĠKingdom": 6329,
  "rich": 6330,
  "Ġdeals": 6331,
  "Ġscheduled": 6332,
  "Ġprotein": 6333,
  "Ġnewspaper": 6334,
  "Ġclients": 6335,
  "ĠDate": 6336,
  "hus": 6337,
  "Ġfeedback": 6338,
  "Ġstretch": 6339,
  "Ġcock": 6340,
  "Ġhotel": 6341,
  "ĠQueen": 6342,
  "Ġsugar": 6343,
  "Ġju": 6344,
  "Ġmilk": 6345,
  "Ġapproval": 6346,
  "ĠLive": 6347,
  "Ġequivalent": 6348,
  "efully": 6349,
  "Ġinsert": 6350,
  "Ġextension": 6351,
  "dri": 6352,
  "John": 6353,
  "Sm": 6354,
  "ĠFund": 6355,
  "Ġconstantly": 6356,
  "Ġ``": 6357,
  "Ġgenerated": 6358,
  "ĠTri": 6359,
  "Ġrecognize": 6360,
  "ĠRa": 6361,
  "etch": 6362,
  "ĠSoviet": 6363,
  "Two": 6364,
  "Ġpatterns": 6365,
  "Ġprofession": 6366,
  "aning": 6367,
  "Time": 6368,
  "ĠLim": 6369,
  "Ġcolors": 6370,
  "ĠAz": 6371,
  "ĠTR": 6372,
  "Ġshell": 6373,
  "Also": 6374,
  "Ġputs": 6375,
  "Ġdelivery": 6376,
  "Ġbrown": 6377,
  "Ġprocessing": 6378,
  "Ġlights": 6379,
  "ĠAud": 6380,
  "Like": 6381,
  "ĠBrazil": 6382,
  "rous": 6383,
  "ESS": 6384,
  "ĠLuc": 6385,
  "Ġsomehow": 6386,
  "Ġ85": 6387,
  "Ġpoliticians": 6388,
  "Ġindicate": 6389,
  "Ġhole": 6390,
  "Ġtechniques": 6391,
  "Ġcompetitive": 6392,
  "Ġvo": 6393,
  "istent": 6394,
  "ĠDream": 6395,
  "Ġcampus": 6396,
  "Ġaspects": 6397,
  "Ġhelpful": 6398,
  "Ġshield": 6399,
  "orse": 6400,
  "Ġtrigger": 6401,
  "mal": 6402,
  "Ġ58": 6403,
  "Ġtort": 6404,
  "Ġpersonally": 6405,
  "Ġtag": 6406,
  "Ġkeeps": 6407,
  "ĠVideo": 6408,
  "Ġbench": 6409,
  "Ġgap": 6410,
  "aire": 6411,
  "Ġeast": 6412,
  "Ġrecovery": 6413,
  "Ġprofit": 6414,
  "ĠMic": 6415,
  "Ġcolon": 6416,
  "Ġstrongly": 6417,
  "style": 6418,
  "han": 6419,
  "Ġreporters": 6420,
  "jo": 6421,
  "rine": 6422,
  "andal": 6423,
  "Ġflash": 6424,
  "Ġstrict": 6425,
  "Ġparking": 6426,
  "ĠPakistan": 6427,
  "Ġli": 6428,
  "Ġweird": 6429,
  "ĠEric": 6430,
  "Ġregions": 6431,
  "ĠJun": 6432,
  "Ġintellect": 6433,
  "ĠWH": 6434,
  "oding": 6435,
  "upid": 6436,
  "ĠTit": 6437,
  "Ġfinger": 6438,
  "oria": 6439,
  "Ġelev": 6440,
  "ĠField": 6441,
  "Ġconclusion": 6442,
  ";;": 6443,
  "Ġfeelings": 6444,
  "Ġextensive": 6445,
  "Ġmixed": 6446,
  "vy": 6447,
  "Ġharass": 6448,
  "ĠCirc": 6449,
  "ouch": 6450,
  "Ġterritory": 6451,
  "Ġsuccessfully": 6452,
  "Mar": 6453,
  "Ġingred": 6454,
  "Ġlayer": 6455,
  "View": 6456,
  "Ġallies": 6457,
  "illance": 6458,
  "ĠThree": 6459,
  "Ġbunch": 6460,
  "Ġnormally": 6461,
  "Ġnetworks": 6462,
  "Ġsacr": 6463,
  "bles": 6464,
  "Ġchose": 6465,
  "Ġopponents": 6466,
  "Ġregardless": 6467,
  "ĠPo": 6468,
  "Ġbridge": 6469,
  "anna": 6470,
  "ĠSilver": 6471,
  "Ġwage": 6472,
  "page": 6473,
  "ĠLittle": 6474,
  "Ġsecretary": 6475,
  "Ġgang": 6476,
  "DR": 6477,
  "FA": 6478,
  "Ġdecent": 6479,
  "ĠSpirit": 6480,
  "Ġuncle": 6481,
  "Ġwalls": 6482,
  "Ġpublish": 6483,
  "Ġgenerate": 6484,
  "car": 6485,
  "Ġpromote": 6486,
  "Ġcutting": 6487,
  "Ġchest": 6488,
  "Ġdrinking": 6489,
  "Ġcollected": 6490,
  "Ġ72": 6491,
  "Ġhoping": 6492,
  "Ġwarned": 6493,
  "Ġinstructions": 6494,
  "OG": 6495,
  "ĠDid": 6496,
  "ĠAgency": 6497,
  "Ġgear": 6498,
  "Ġcriticism": 6499,
  "ĠFurther": 6500,
  "anny": 6501,
  "Red": 6502,
  "Ġcounsel": 6503,
  "pool": 6504,
  "Ġteaching": 6505,
  "Ġdeeply": 6506,
  "iy": 6507,
  "Ġchoices": 6508,
  "Ġpermanent": 6509,
  "inem": 6510,
  "kel": 6511,
  "Ġfasc": 6512,
  "file": 6513,
  "ĠLow": 6514,
  "ĠPerson": 6515,
  "Ġtournament": 6516,
  "stal": 6517,
  "Ġmel": 6518,
  "UST": 6519,
  "ĠRay": 6520,
  "azi": 6521,
  "Val": 6522,
  "Ġcontained": 6523,
  "ĠHolly": 6524,
  "Ġwake": 6525,
  "Ġreveal": 6526,
  "Ġprocesses": 6527,
  "Ġblind": 6528,
  "Ġsteel": 6529,
  "ĠBad": 6530,
  "Ġcarefully": 6531,
  "appy": 6532,
  "Ġgaming": 6533,
  "Ġhouses": 6534,
  "ĠColl": 6535,
  "Ġtruck": 6536,
  "erm": 6537,
  "Ġscored": 6538,
  "return": 6539,
  "bound": 6540,
  "Ġsharp": 6541,
  "Ġafraid": 6542,
  "ĠEX": 6543,
  "amber": 6544,
  "Ġscheme": 6545,
  "ĠPolit": 6546,
  "Ġdecline": 6547,
  "Ġpushing": 6548,
  "Ġpossession": 6549,
  "Ġteachers": 6550,
  "Ġyield": 6551,
  "HA": 6552,
  "ĠDavis": 6553,
  "Ġrig": 6554,
  "ĠDaniel": 6555,
  "acon": 6556,
  "Ġhide": 6557,
  "uten": 6558,
  "Ġcolleagues": 6559,
  "Ġprinciples": 6560,
  "Ġloud": 6561,
  "Ġsin": 6562,
  "Ġstone": 6563,
  "Ġtaught": 6564,
  "Ġterrible": 6565,
  "Ġstuck": 6566,
  "teen": 6567,
  "ĠBBC": 6568,
  "Ġwheel": 6569,
  "Ġchampions": 6570,
  "olars": 6571,
  "player": 6572,
  "Ġrepeatedly": 6573,
  "ĠStill": 6574,
  "Ġlikes": 6575,
  "asty": 6576,
  "ester": 6577,
  "Ġbath": 6578,
  "Ġnoise": 6579,
  "Ġnorthern": 6580,
  "Part": 6581,
  "Ġmagn": 6582,
  "Ġfab": 6583,
  "ĠAsh": 6584,
  "Ġticket": 6585,
  "Ġalongside": 6586,
  "ĠMusic": 6587,
  "Ġriver": 6588,
  "ĠSteel": 6589,
  "ĠCL": 6590,
  "ĠPlayer": 6591,
  "owing": 6592,
  "rep": 6593,
  "size": 6594,
  "Ġtur": 6595,
  "ĠGeorgia": 6596,
  "iscal": 6597,
  "raction": 6598,
  "Ġcable": 6599,
  "Ġ59": 6600,
  "Ġwins": 6601,
  "Ġupcoming": 6602,
  "Ġsurvive": 6603,
  "Ġinspired": 6604,
  "ĠEducation": 6605,
  "ĠFoot": 6606,
  "Ġyellow": 6607,
  "ĠPage": 6608,
  "ĠHas": 6609,
  "Ġax": 6610,
  "\\\"": 6611,
  "Ġregister": 6612,
  "Ġabilities": 6613,
  "ĠFamily": 6614,
  "ĠPrice": 6615,
  "Ġthin": 6616,
  "Ġgotten": 6617,
  "Ġasks": 6618,
  "Ġtail": 6619,
  "Ġexciting": 6620,
  "ĠSpanish": 6621,
  "Ġencourage": 6622,
  "ĠAh": 6623,
  "Ġcommitment": 6624,
  "Ġspin": 6625,
  "Ġcaptured": 6626,
  "Ġinnoc": 6627,
  "ĠCome": 6628,
  "Ġartists": 6629,
  "ĠNumber": 6630,
  "Ġelectronic": 6631,
  "apes": 6632,
  "Ġwra": 6633,
  "Ġmyth": 6634,
  "prise": 6635,
  "ĠMiller": 6636,
  "ĠCreat": 6637,
  "bell": 6638,
  "Ġdirected": 6639,
  "Ġextract": 6640,
  "Ġsorry": 6641,
  "Ġvice": 6642,
  "agger": 6643,
  "ĠSupport": 6644,
  "ĠIron": 6645,
  "Ġwonderful": 6646,
  "Ġgra": 6647,
  "Net": 6648,
  "ione": 6649,
  "Eng": 6650,
  "Ġships": 6651,
  "ikes": 6652,
  "ĠKevin": 6653,
  "true": 6654,
  "enth": 6655,
  "ĠDespite": 6656,
  "ĠSE": 6657,
  "Ġhabit": 6658,
  "Ġinqu": 6659,
  "Ġvoid": 6660,
  "Ġengaged": 6661,
  "Ġangry": 6662,
  "Ġrating": 6663,
  "Ġfrag": 6664,
  "bro": 6665,
  "icking": 6666,
  "Ġworried": 6667,
  "Ġapartment": 6668,
  "Ġestate": 6669,
  "emon": 6670,
  "ĠSnow": 6671,
  "Ġcounty": 6672,
  "ĠStephen": 6673,
  "wind": 6674,
  "ĠNations": 6675,
  "Ġfolks": 6676,
  "Out": 6677,
  "Ġgall": 6678,
  "Ġstead": 6679,
  "ĠBon": 6680,
  "ĠLib": 6681,
  "Ġinformed": 6682,
  "Ġ120": 6683,
  "chain": 6684,
  "orough": 6685,
  "Ġdriven": 6686,
  "Ġregularly": 6687,
  "Ġbasket": 6688,
  "Ġprinciple": 6689,
  "ĠRoman": 6690,
  "ĠAbout": 6691,
  "Ġalert": 6692,
  "Ġrepresented": 6693,
  "HS": 6694,
  "cers": 6695,
  "parent": 6696,
  "Art": 6697,
  "pack": 6698,
  "Ġdiplom": 6699,
  "rets": 6700,
  "ĠNO": 6701,
  "Ġcapture": 6702,
  "Ġannouncement": 6703,
  "ĠLear": 6704,
  "Ġhook": 6705,
  "Ġpurs": 6706,
  "ĠSuch": 6707,
  "ĠCamer": 6708,
  "Ġrefugees": 6709,
  "ĠVe": 6710,
  "Pol": 6711,
  "Ġrecognized": 6712,
  "lib": 6713,
  "Ġhadn": 6714,
  "Ġpilot": 6715,
  "ushing": 6716,
  "Ġreturning": 6717,
  "Ġtrail": 6718,
  "ĠStone": 6719,
  "Ġroutine": 6720,
  "Ġcourts": 6721,
  "Ġdesper": 6722,
  "Ġfriendly": 6723,
  "ĠItaly": 6724,
  "Ġpled": 6725,
  "Ġbreath": 6726,
  "Ġstudio": 6727,
  "Ġimpressive": 6728,
  "Ġfing": 6729,
  "inking": 6730,
  "ĠRog": 6731,
  "iary": 6732,
  "color": 6733,
  "aron": 6734,
  "Ġfault": 6735,
  "ĠNick": 6736,
  "Down": 6737,
  "ĠRose": 6738,
  "List": 6739,
  "Ġoutcome": 6740,
  "err": 6741,
  "Ġelsewhere": 6742,
  "Ġretire": 6743,
  "Ġpounds": 6744,
  "People": 6745,
  "Ġloan": 6746,
  "Ġratio": 6747,
  "ĠEmpire": 6748,
  "Ġgonna": 6749,
  "Ġinvent": 6750,
  "Ġ1970": 6751,
  "pat": 6752,
  "Ġpromised": 6753,
  "Ġdinner": 6754,
  "ĠHom": 6755,
  "Ġcreates": 6756,
  "Ġoperate": 6757,
  "ĠJordan": 6758,
  "etime": 6759,
  "Ġsustain": 6760,
  "Reg": 6761,
  "Ġincredible": 6762,
  "ima": 6763,
  "Ġwarrant": 6764,
  "Ġmm": 6765,
  "Att": 6766,
  "Ġreviews": 6767,
  "iture": 6768,
  "ĠSource": 6769,
  "lights": 6770,
  "ĠFord": 6771,
  "group": 6772,
  "store": 6773,
  "Ġfeatured": 6774,
  "Ġforever": 6775,
  "Ġpoverty": 6776,
  "ĠPop": 6777,
  "azz": 6778,
  "aching": 6779,
  "Ġlaid": 6780,
  "ĠSupp": 6781,
  "Ġfilter": 6782,
  "ena": 6783,
  "ĠCommunity": 6784,
  "Ġcreatures": 6785,
  "ĠRoyal": 6786,
  "ĠBrad": 6787,
  "lers": 6788,
  "there": 6789,
  "Ġvaluable": 6790,
  "ACK": 6791,
  "ĠTaylor": 6792,
  "Ġliquid": 6793,
  "ĠCarl": 6794,
  "ĠFinal": 6795,
  "aga": 6796,
  "ĠWilson": 6797,
  "Because": 6798,
  "ĠProfessor": 6799,
  "aka": 6800,
  "Ġincredibly": 6801,
  "rance": 6802,
  "!)": 6803,
  "Ref": 6804,
  "sk": 6805,
  "Ġsolutions": 6806,
  "Ġatmosphere": 6807,
  "Ġblame": 6808,
  "umes": 6809,
  "ĠNob": 6810,
  "CA": 6811,
  "umps": 6812,
  "rical": 6813,
  "ĠDest": 6814,
  "ĠPA": 6815,
  "wan": 6816,
  "Ġfifth": 6817,
  "âĦ¢": 6818,
  "ĠCry": 6819,
  "Ġpurchased": 6820,
  "Ġhack": 6821,
  "Ġintense": 6822,
  "obs": 6823,
  "Ġorigin": 6824,
  "Ġdefine": 6825,
  "Ġcareful": 6826,
  "***": 6827,
  "Ġshoulder": 6828,
  "Click": 6829,
  "Ġtied": 6830,
  "Ġdestruction": 6831,
  "oured": 6832,
  "Ġnobody": 6833,
  "Ġho": 6834,
  "ĠExper": 6835,
  "Ġtip": 6836,
  "Ġtechnique": 6837,
  "ĠPok": 6838,
  "bow": 6839,
  "Ġlegend": 6840,
  "Ġaccord": 6841,
  "Ġbusy": 6842,
  "Ġhang": 6843,
  "aki": 6844,
  "Ġsurgery": 6845,
  "Ġuniform": 6846,
  "Ġscenes": 6847,
  "code": 6848,
  "ĠHave": 6849,
  "Ġcrypt": 6850,
  "Ġscream": 6851,
  "Ġadopted": 6852,
  "Ġscores": 6853,
  "Ne": 6854,
  "ĠItalian": 6855,
  "BO": 6856,
  "Ġindicated": 6857,
  "Ġentertain": 6858,
  "Gu": 6859,
  "iel": 6860,
  "Ġtwenty": 6861,
  "Ġengage": 6862,
  "offs": 6863,
  "ĠPacific": 6864,
  "Ġsmile": 6865,
  "Ġpersonnel": 6866,
  "Ġtoler": 6867,
  "Ġdoors": 6868,
  "Ġtone": 6869,
  "Ġmachines": 6870,
  "Ġentering": 6871,
  "CO": 6872,
  "ĠJersey": 6873,
  "Ġforest": 6874,
  "Ġhorse": 6875,
  "Ġcomplaint": 6876,
  "ĠSpring": 6877,
  "yo": 6878,
  "ĠPlus": 6879,
  "eding": 6880,
  "ĠReturn": 6881,
  "quarters": 6882,
  "ials": 6883,
  "cow": 6884,
  "Ġfruit": 6885,
  "Ġwine": 6886,
  "Ġpursu": 6887,
  "ĠSteven": 6888,
  "Who": 6889,
  "Ġclothes": 6890,
  "Ġsquad": 6891,
  "Ġstable": 6892,
  "Ġraw": 6893,
  "zens": 6894,
  "Star": 6895,
  "ancer": 6896,
  "Ġkeys": 6897,
  "ĠMu": 6898,
  "Ġcomplicated": 6899,
  "iger": 6900,
  "ĠText": 6901,
  "Ġ68": 6902,
  "Ġfunny": 6903,
  "Ġrelief": 6904,
  "ĠLew": 6905,
  "ĠCook": 6906,
  "Ġchart": 6907,
  "Ġdrawing": 6908,
  "GE": 6909,
  "ĠBull": 6910,
  "ILL": 6911,
  "Ġsalt": 6912,
  "ille": 6913,
  "Ġresource": 6914,
  "away": 6915,
  "ĠBru": 6916,
  "Ġsomebody": 6917,
  "Ġparticipate": 6918,
  "Ġrose": 6919,
  "wered": 6920,
  "Ġmuscle": 6921,
  "Ġconsent": 6922,
  "Ġcontinuing": 6923,
  "ĠGuardian": 6924,
  "ĠOrder": 6925,
  "Ġrear": 6926,
  "Ġprovision": 6927,
  "Ġliked": 6928,
  "Ġbra": 6929,
  "Ġmeetings": 6930,
  "Ġauto": 6931,
  "Ġrecording": 6932,
  "ĠSoft": 6933,
  "ĠRoll": 6934,
  "Ġprogramming": 6935,
  "Ġpic": 6936,
  "Ġproved": 6937,
  "Ġstab": 6938,
  "Ġcaption": 6939,
  "ulating": 6940,
  "ĠAttack": 6941,
  "Ġnewly": 6942,
  "fr": 6943,
  "Ġdiscipl": 6944,
  "ĠGreek": 6945,
  "Ġedition": 6946,
  "ĠDoes": 6947,
  "ĠBox": 6948,
  "ifle": 6949,
  "acket": 6950,
  "Ġpasses": 6951,
  "Ġguest": 6952,
  "itals": 6953,
  "UD": 6954,
  "ĠRest": 6955,
  "oval": 6956,
  "ta": 6957,
  "Ġarmor": 6958,
  "ĠTown": 6959,
  "Ġinches": 6960,
  "Despite": 6961,
  "Ġassign": 6962,
  "herent": 6963,
  "Ġprepare": 6964,
  "ĠMeg": 6965,
  "ockey": 6966,
  "Ġdepends": 6967,
  "Ġtracks": 6968,
  "watch": 6969,
  "Ġlists": 6970,
  "ĠNorthern": 6971,
  "Ġalter": 6972,
  "rec": 6973,
  "ĠEastern": 6974,
  "Ġeverywhere": 6975,
  "?'": 6976,
  "Ġfought": 6977,
  "Ġmac": 6978,
  "itarian": 6979,
  "Ġscope": 6980,
  "ĠAL": 6981,
  "aws": 6982,
  "arms": 6983,
  "Ġque": 6984,
  "Ġenjoyed": 6985,
  "Ġaggressive": 6986,
  "ĠStory": 6987,
  "Ġrecipe": 6988,
  "Ġrarely": 6989,
  "value": 6990,
  "angel": 6991,
  "aying": 6992,
  "omething": 6993,
  "Ġsouthern": 6994,
  "rolled": 6995,
  "ults": 6996,
  "ĠNic": 6997,
  "Ġbehalf": 6998,
  "Ġsequence": 6999,
  "abet": 7000,
  "Ġworker": 7001,
  "Ġmainly": 7002,
  "ĠMajor": 7003,
  "Ġorganized": 7004,
  "Ġfake": 7005,
  "Ġconcluded": 7006,
  "Ġchances": 7007,
  "berry": 7008,
  "Ġfro": 7009,
  "ĠBrother": 7010,
  "ĠBrian": 7011,
  "Ġtries": 7012,
  "Ġsamples": 7013,
  "Ġbid": 7014,
  "ĠGolden": 7015,
  "Ġphotograph": 7016,
  "ĠDO": 7017,
  "Rem": 7018,
  "Ġcontest": 7019,
  "Ġsigning": 7020,
  "Ear": 7021,
  "Ġexit": 7022,
  "Before": 7023,
  "otted": 7024,
  "Ġsword": 7025,
  "aed": 7026,
  "Ġinner": 7027,
  "ĠBi": 7028,
  "ĠMiami": 7029,
  "press": 7030,
  "Ġshipping": 7031,
  "ĠHoward": 7032,
  "ĠDisc": 7033,
  "ĠJac": 7034,
  "iamond": 7035,
  "ĠTherefore": 7036,
  "ses": 7037,
  "ĠPrincess": 7038,
  "ĠAnth": 7039,
  "Ġapolog": 7040,
  "Ġ61": 7041,
  "js": 7042,
  "Ġluck": 7043,
  "usted": 7044,
  "ni": 7045,
  "Ġanticip": 7046,
  "eman": 7047,
  "Ġwinner": 7048,
  "Ġsilver": 7049,
  "lla": 7050,
  "icity": 7051,
  "Ġunusual": 7052,
  "Ġcrack": 7053,
  "Ġties": 7054,
  "ez": 7055,
  "Ġpractical": 7056,
  "ĠPlace": 7057,
  "Ġpriority": 7058,
  "ICE": 7059,
  "Ġdescribes": 7060,
  "Ġbranch": 7061,
  "aska": 7062,
  "bi": 7063,
  "ĠTurk": 7064,
  "Ġenthus": 7065,
  "Ġfighters": 7066,
  "Ġfoundation": 7067,
  "Are": 7068,
  "Ġjudgment": 7069,
  "cling": 7070,
  "Ġsolve": 7071,
  "ĠDesign": 7072,
  "Where": 7073,
  "ĠTro": 7074,
  "after": 7075,
  "Ġneutral": 7076,
  "ĠHollywood": 7077,
  "ĠNon": 7078,
  "yes": 7079,
  "olis": 7080,
  "Ġreputation": 7081,
  "Ġsmell": 7082,
  "Ġbread": 7083,
  "ĠBul": 7084,
  "ĠBeach": 7085,
  "Ġclaiming": 7086,
  "Ġtechnologies": 7087,
  "Ġupgrade": 7088,
  "rows": 7089,
  "ĠJosh": 7090,
  "ĠDisney": 7091,
  "erved": 7092,
  "Ġunex": 7093,
  "Ġbarely": 7094,
  "then": 7095,
  "Ġillness": 7096,
  "etary": 7097,
  "ĠBal": 7098,
  "Ġpatch": 7099,
  "Ġbutt": 7100,
  "Ġstupid": 7101,
  "ĠDog": 7102,
  "front": 7103,
  "iece": 7104,
  "Ġprotests": 7105,
  "Ġchat": 7106,
  "oenix": 7107,
  "Ġwing": 7108,
  "ptions": 7109,
  "ĠCoast": 7110,
  "osa": 7111,
  "ĠGreg": 7112,
  "hop": 7113,
  "Ġrecover": 7114,
  "ĠUsing": 7115,
  "Ġthreatened": 7116,
  "Ġspiritual": 7117,
  "ĠEvent": 7118,
  "ĠFred": 7119,
  "Ġadvertising": 7120,
  "Ġimprovements": 7121,
  "Ġerrors": 7122,
  "Ġsensitive": 7123,
  "ĠNavy": 7124,
  "Ġcream": 7125,
  "Look": 7126,
  "Ġexclusive": 7127,
  "Ġstructures": 7128,
  "Ġstored": 7129,
  "Ġ1000": 7130,
  "UP": 7131,
  "ĠBudd": 7132,
  "AF": 7133,
  "woman": 7134,
  "ĠAcademy": 7135,
  "ðŁ": 7136,
  "sea": 7137,
  "Ġtemporary": 7138,
  "About": 7139,
  "esters": 7140,
  "Ġtickets": 7141,
  "Ġpossess": 7142,
  "inch": 7143,
  "oz": 7144,
  "Ġla": 7145,
  "Ġcontracts": 7146,
  "Ġunp": 7147,
  "ĠKat": 7148,
  "asm": 7149,
  "Ġmountain": 7150,
  "ĠCaptain": 7151,
  "Step": 7152,
  "making": 7153,
  "ĠSpain": 7154,
  "Ġequally": 7155,
  "Ġlands": 7156,
  "aters": 7157,
  "Ġrejected": 7158,
  "era": 7159,
  "imm": 7160,
  "rix": 7161,
  "CD": 7162,
  "Ġtransaction": 7163,
  "gener": 7164,
  "lessly": 7165,
  "Ġcos": 7166,
  "ĠHenry": 7167,
  "Ġprovisions": 7168,
  "Ġgained": 7169,
  "Ġdirectory": 7170,
  "Ġraising": 7171,
  "ĠSep": 7172,
  "olen": 7173,
  "onder": 7174,
  "Ġconsole": 7175,
  "inst": 7176,
  "Ġuncertain": 7177,
  "ocking": 7178,
  "Ġmeasured": 7179,
  "Ġplain": 7180,
  "Ġseats": 7181,
  "SL": 7182,
  "afe": 7183,
  "Ġestimate": 7184,
  "athered": 7185,
  "Ġcontributed": 7186,
  "Ġepisodes": 7187,
  "Gr": 7188,
  "ANT": 7189,
  "Gener": 7190,
  "viously": 7191,
  "Ġmovements": 7192,
  "entle": 7193,
  "ounce": 7194,
  "Ġprev": 7195,
  "ĠTable": 7196,
  "Ġsuffer": 7197,
  "ĠWolf": 7198,
  "bat": 7199,
  "Ġdemands": 7200,
  "Ġagenda": 7201,
  "Ġdozen": 7202,
  "izard": 7203,
  "ĠOp": 7204,
  "Ġvisited": 7205,
  "ĠPerhaps": 7206,
  "Ġactor": 7207,
  "Ġdelic": 7208,
  "Ġcontribute": 7209,
  "Ġinject": 7210,
  "ĠEs": 7211,
  "acco": 7212,
  "Ġlistening": 7213,
  "ependent": 7214,
  "Ġ76": 7215,
  "ĠIrish": 7216,
  "Ġassigned": 7217,
  "Ġworldwide": 7218,
  "Ġnarrative": 7219,
  "base": 7220,
  "ĠBowl": 7221,
  "Ġrelation": 7222,
  "Ġcovers": 7223,
  "Ġ78": 7224,
  "Ġgrass": 7225,
  "ira": 7226,
  "Ġengineering": 7227,
  "ĠMars": 7228,
  "Ġven": 7229,
  "Ġsteal": 7230,
  "Ġreplied": 7231,
  "Ġultimate": 7232,
  "Ġtitles": 7233,
  "Ġjoy": 7234,
  "aus": 7235,
  "Ġhyper": 7236,
  "Ġofficially": 7237,
  "Ġdifficulty": 7238,
  "Ġresulted": 7239,
  "ribed": 7240,
  "link": 7241,
  "who": 7242,
  "ĠSpeed": 7243,
  "Wind": 7244,
  "Ġrestrictions": 7245,
  "ĠShare": 7246,
  "itionally": 7247,
  "Ġbeauty": 7248,
  "opt": 7249,
  "Ġmaps": 7250,
  "ĠCR": 7251,
  "ĠNation": 7252,
  "ĠCruz": 7253,
  "Will": 7254,
  "Ġelectricity": 7255,
  "Ġburd": 7256,
  "Ġpermit": 7257,
  "Ġnaturally": 7258,
  "Ġ07": 7259,
  "Ġthrown": 7260,
  "Ġalien": 7261,
  "ĠHero": 7262,
  "ĠKent": 7263,
  "ĠRick": 7264,
  "Ġpace": 7265,
  "GL": 7266,
  "Ġpoison": 7267,
  "ĠTower": 7268,
  "Ġformal": 7269,
  "Ġgenuine": 7270,
  "Ġkil": 7271,
  "aver": 7272,
  "Ġprocedure": 7273,
  "ĠProp": 7274,
  "ĠMain": 7275,
  "asant": 7276,
  "Ġtrained": 7277,
  "Game": 7278,
  "ĠLoad": 7279,
  "ĠMA": 7280,
  "Ġcrucial": 7281,
  "Ġlets": 7282,
  "ĠFR": 7283,
  "Ġchampion": 7284,
  "Ġwriters": 7285,
  "Ġconnections": 7286,
  "Ġokay": 7287,
  "irms": 7288,
  "Ġencounter": 7289,
  "ĠBuff": 7290,
  "Ġachieved": 7291,
  "Ġchecks": 7292,
  "iscons": 7293,
  "Ġassistant": 7294,
  "Ġwhenever": 7295,
  "ĠAccess": 7296,
  "ĠUr": 7297,
  "bin": 7298,
  "Ġclock": 7299,
  "isp": 7300,
  "opher": 7301,
  "Ġborrow": 7302,
  "Ġmad": 7303,
  "Ġpersonality": 7304,
  "only": 7305,
  "Ġgains": 7306,
  "Ġterr": 7307,
  "Ġrely": 7308,
  "Ġuncom": 7309,
  "rating": 7310,
  "eland": 7311,
  "Ġmoon": 7312,
  "annon": 7313,
  "Ġvulnerable": 7314,
  "ÂłÂłÂłÂł": 7315,
  "ĠRadio": 7316,
  "Ġwestern": 7317,
  "sect": 7318,
  "ĠTony": 7319,
  "Ġoccurs": 7320,
  "ĠOs": 7321,
  "ĠHon": 7322,
  "ÃŃ": 7323,
  "Ġvessel": 7324,
  "ĠScotland": 7325,
  "string": 7326,
  "Ġfantasy": 7327,
  "ĠShadow": 7328,
  "WE": 7329,
  "iti": 7330,
  "ras": 7331,
  "Ġboat": 7332,
  "Ġmarks": 7333,
  "Ġordinary": 7334,
  "Ġpetition": 7335,
  "Ġ73": 7336,
  "Ġadventure": 7337,
  "Ġignore": 7338,
  "ĠSav": 7339,
  "VP": 7340,
  "Ġfactory": 7341,
  "Ġtasks": 7342,
  "Ġdepression": 7343,
  "zed": 7344,
  "ĠStorm": 7345,
  "Ġreducing": 7346,
  "via": 7347,
  "Ġstriking": 7348,
  "Ġdollar": 7349,
  "ho": 7350,
  "OV": 7351,
  "Ġinstrument": 7352,
  "Ġphilosophy": 7353,
  "ĠMoore": 7354,
  "ĠAvenue": 7355,
  "Ġruled": 7356,
  "INE": 7357,
  "ĠMah": 7358,
  "Ġscenario": 7359,
  "ĠNASA": 7360,
  "Ġenorm": 7361,
  "Ġdebut": 7362,
  "Ġtea": 7363,
  "Today": 7364,
  "Ġabsence": 7365,
  "Sim": 7366,
  "Ġham": 7367,
  "leep": 7368,
  "Ġtables": 7369,
  "ĠHeart": 7370,
  "Ke": 7371,
  "requ": 7372,
  "map": 7373,
  "Ġpump": 7374,
  "Ġrapidly": 7375,
  "vi": 7376,
  "EP": 7377,
  "des": 7378,
  "chant": 7379,
  "ĠSanta": 7380,
  "Load": 7381,
  "ĠCase": 7382,
  "Ġsaving": 7383,
  "ounced": 7384,
  "ĠWas": 7385,
  "ĠBron": 7386,
  "UE": 7387,
  "Ġdynamic": 7388,
  "high": 7389,
  "Ġstack": 7390,
  "ĠSus": 7391,
  "ĠZealand": 7392,
  "abs": 7393,
  "hot": 7394,
  "Ġhardly": 7395,
  "ĠBurn": 7396,
  "Ġsty": 7397,
  "Ġgate": 7398,
  "Ġscreens": 7399,
  "Ġsubmitted": 7400,
  "Ġ101": 7401,
  "Ġlanguages": 7402,
  "ught": 7403,
  "emen": 7404,
  "Ġfalls": 7405,
  "Ġcoc": 7406,
  "Ġstrikes": 7407,
  "pa": 7408,
  "Ġdeliber": 7409,
  "Ġrelax": 7410,
  "ĠDeb": 7411,
  "Ġbell": 7412,
  "Ġdisorder": 7413,
  "cut": 7414,
  "Ġlocked": 7415,
  "Ġshortly": 7416,
  "ĠJudge": 7417,
  "ĠSometimes": 7418,
  "Ġrival": 7419,
  "Ġdust": 7420,
  "Ġreaching": 7421,
  "File": 7422,
  "ĠJason": 7423,
  "aret": 7424,
  "Ġstations": 7425,
  "ĠTechnology": 7426,
  "comes": 7427,
  "ĠUnfortunately": 7428,
  "ĠChildren": 7429,
  "Ġapplies": 7430,
  "asted": 7431,
  "Ġanger": 7432,
  "Ġcompare": 7433,
  "Ġaimed": 7434,
  "ĠBa": 7435,
  "Ġjury": 7436,
  "Ġairport": 7437,
  "Ġsections": 7438,
  "ĠPrince": 7439,
  "emed": 7440,
  "Ġmedicine": 7441,
  "Ġhitting": 7442,
  "Ġspark": 7443,
  "olves": 7444,
  "Ġads": 7445,
  "State": 7446,
  "Ġfoods": 7447,
  "Ġreplacement": 7448,
  "Ġchicken": 7449,
  "Ġlowest": 7450,
  "Ġminds": 7451,
  "Ġinvolves": 7452,
  "ui": 7453,
  "ĠWhich": 7454,
  "Ġbills": 7455,
  "Ġimprovement": 7456,
  "Ġinev": 7457,
  "Ġexpectations": 7458,
  "Ġintellectual": 7459,
  "Ġspaces": 7460,
  "Ġmechanism": 7461,
  "break": 7462,
  "ĠZe": 7463,
  "ĠTenn": 7464,
  "Ġbarrel": 7465,
  "Ġstatic": 7466,
  "Police": 7467,
  "Ġtips": 7468,
  "Ġhandling": 7469,
  "cus": 7470,
  "oded": 7471,
  "ilton": 7472,
  "iry": 7473,
  "Ġcomic": 7474,
  "Ġversus": 7475,
  "Ġloop": 7476,
  "Ġsurf": 7477,
  "ĠHunter": 7478,
  "Ġbeliefs": 7479,
  "Ġsetup": 7480,
  "Ġbrew": 7481,
  "image": 7482,
  "Ġcomputers": 7483,
  "ĠMedal": 7484,
  "Ġdisplayed": 7485,
  "Ġgrav": 7486,
  "Mon": 7487,
  "ĠCentre": 7488,
  "Ġcameras": 7489,
  "ĠMrs": 7490,
  "ĠHay": 7491,
  "Ġaver": 7492,
  "ĠKelly": 7493,
  "py": 7494,
  "Ġrequirement": 7495,
  "Ġentitled": 7496,
  "Ġshadow": 7497,
  "agic": 7498,
  "ĠAk": 7499,
  "Ġelite": 7500,
  "Ġdivided": 7501,
  "Ġheading": 7502,
  "Ġcopies": 7503,
  "Ġlosses": 7504,
  "ked": 7505,
  "ĠBry": 7506,
  "Ġans": 7507,
  "ĠSteam": 7508,
  "Ġreporter": 7509,
  "Ġsuperior": 7510,
  "don": 7511,
  "erent": 7512,
  "Ã¶": 7513,
  "Ġtherapy": 7514,
  "Ġpeak": 7515,
  "ĠModel": 7516,
  "Ġlying": 7517,
  "zer": 7518,
  "Ġresponses": 7519,
  "Ġconsideration": 7520,
  "ĠBible": 7521,
  "Ġloyal": 7522,
  "Ġinstant": 7523,
  "Ġpm": 7524,
  "ĠForest": 7525,
  "Ġextend": 7526,
  "Ġconvin": 7527,
  "ĠOak": 7528,
  "check": 7529,
  "ped": 7530,
  "Ġoverse": 7531,
  "Top": 7532,
  "count": 7533,
  "ĠArk": 7534,
  "Â·": 7535,
  "ĠLA": 7536,
  "ĠLatin": 7537,
  "Ġsubstance": 7538,
  "Er": 7539,
  "ocolate": 7540,
  "Ġattended": 7541,
  "ĠManager": 7542,
  "Ġappreciate": 7543,
  "omy": 7544,
  "BL": 7545,
  "Ġguarantee": 7546,
  "Ġocean": 7547,
  "clude": 7548,
  "Ġheaded": 7549,
  "Ġtape": 7550,
  "Ġloose": 7551,
  "Ġlogic": 7552,
  "Ġproven": 7553,
  "Ġspir": 7554,
  "Ġadmit": 7555,
  "isa": 7556,
  "Ġinvestigate": 7557,
  "ĠLost": 7558,
  "cest": 7559,
  "Ġrequested": 7560,
  "Ġwindows": 7561,
  "ĠPokÃ©": 7562,
  "ĠWithout": 7563,
  "Met": 7564,
  "Ġbehaviour": 7565,
  "Ġreader": 7566,
  "Ġhung": 7567,
  "ĠKeep": 7568,
  "Ġroles": 7569,
  "Ġimplemented": 7570,
  "Ġblank": 7571,
  "Ġserves": 7572,
  "ĠJay": 7573,
  "ĠFriend": 7574,
  "profit": 7575,
  "Ġrepair": 7576,
  "arrass": 7577,
  "Ġcritics": 7578,
  "adi": 7579,
  "ĠFather": 7580,
  "Ġshout": 7581,
  "Ġfool": 7582,
  "Ġproducing": 7583,
  "Ġrounds": 7584,
  "Ġcircle": 7585,
  "Ġprepar": 7586,
  "Ġsubmit": 7587,
  "Ġnic": 7588,
  "Under": 7589,
  "Ġvital": 7590,
  "Ġpassword": 7591,
  "Ġspeaks": 7592,
  "Ġbars": 7593,
  "Ġdeeper": 7594,
  "ĠMill": 7595,
  "ported": 7596,
  "Ġwid": 7597,
  "Ġbutter": 7598,
  "Ġsmoking": 7599,
  "Ġindicates": 7600,
  "Key": 7601,
  "ĠFile": 7602,
  "alling": 7603,
  "asting": 7604,
  "ĠRus": 7605,
  "Ġfur": 7606,
  "ika": 7607,
  "Ġsecondary": 7608,
  "Ġmonster": 7609,
  "igs": 7610,
  "ĠCurrent": 7611,
  "Event": 7612,
  "Ġownership": 7613,
  "endar": 7614,
  "Ġarrive": 7615,
  "ĠTax": 7616,
  "ĠPriv": 7617,
  "Ġkiss": 7618,
  "cat": 7619,
  "Ġupset": 7620,
  "angle": 7621,
  "itches": 7622,
  "ector": 7623,
  "ologists": 7624,
  "ĠGalaxy": 7625,
  "Ġhint": 7626,
  "enter": 7627,
  "ĠHospital": 7628,
  "Ġgreatly": 7629,
  "Ġbegun": 7630,
  "esy": 7631,
  "Ġsoil": 7632,
  "ĠAnton": 7633,
  "Ġmaintenance": 7634,
  "Ġdozens": 7635,
  "Ġhumanity": 7636,
  "ĠAlabama": 7637,
  "worth": 7638,
  "aping": 7639,
  "lah": 7640,
  "Ġgathered": 7641,
  "Ġattacking": 7642,
  "found": 7643,
  "ĠSquare": 7644,
  "Ġdance": 7645,
  "ĠSaint": 7646,
  "archy": 7647,
  "Ġbaseball": 7648,
  "Ġcontributions": 7649,
  "test": 7650,
  "Ġbab": 7651,
  "Ġcontainer": 7652,
  "letter": 7653,
  "Ġfallen": 7654,
  "Ġwebsites": 7655,
  "Ġbottle": 7656,
  "Ġbreast": 7657,
  "ĠPL": 7658,
  "Ġinterviews": 7659,
  "ĠAle": 7660,
  "Ġbanned": 7661,
  "engers": 7662,
  "inth": 7663,
  "Ġconcerning": 7664,
  "IVE": 7665,
  "Ġexpenses": 7666,
  "ĠMatthew": 7667,
  "ds": 7668,
  "istance": 7669,
  "Ġentity": 7670,
  "...\"": 7671,
  "Ġreliable": 7672,
  "Ġopinions": 7673,
  "low": 7674,
  "Ġcompete": 7675,
  "Ġthorough": 7676,
  "ĠCro": 7677,
  "Ġlawyers": 7678,
  "ĠStation": 7679,
  "TE": 7680,
  "ĠLind": 7681,
  "ĠPur": 7682,
  "Ġefficiency": 7683,
  "ĠLy": 7684,
  "Ġmask": 7685,
  "Ġdisaster": 7686,
  "Ġages": 7687,
  "ERE": 7688,
  "esis": 7689,
  "ĠHold": 7690,
  "Ġcasual": 7691,
  "bled": 7692,
  "Ġenabled": 7693,
  "ĠIntelligence": 7694,
  "iper": 7695,
  "ĠMap": 7696,
  "ĠBE": 7697,
  "Ġemerged": 7698,
  "isdom": 7699,
  "Ġcabin": 7700,
  "Ġregistration": 7701,
  "Ġfingers": 7702,
  "ĠDoctor": 7703,
  "Ġtransportation": 7704,
  "Ġawareness": 7705,
  "Her": 7706,
  "Ġattempting": 7707,
  "Off": 7708,
  "ĠStore": 7709,
  "ĠKnow": 7710,
  "Ġdefence": 7711,
  "Ġscan": 7712,
  "ĠTen": 7713,
  "ĠChair": 7714,
  "ĠAtlanta": 7715,
  "Ġanswered": 7716,
  "ĠKar": 7717,
  "Ġcategories": 7718,
  "Ġrational": 7719,
  "Ġcust": 7720,
  "Ġrobot": 7721,
  "Ġcorrectly": 7722,
  "Ġgif": 7723,
  "mic": 7724,
  "Ġgrounds": 7725,
  "ĠOpp": 7726,
  "iate": 7727,
  "Ġdistributed": 7728,
  "Ġchallenging": 7729,
  "uto": 7730,
  "Ġingredients": 7731,
  "Ġinvited": 7732,
  "Ġfounded": 7733,
  "ded": 7734,
  "Ġbowl": 7735,
  "Ġbrothers": 7736,
  "ĠHa": 7737,
  "Ġwages": 7738,
  "Ġseed": 7739,
  "atively": 7740,
  "Ġaddresses": 7741,
  "abeth": 7742,
  "Ġattitude": 7743,
  "isd": 7744,
  "child": 7745,
  "Ġmole": 7746,
  "Ġdiscovery": 7747,
  "yard": 7748,
  "Br": 7749,
  "Ġsupplies": 7750,
  "elling": 7751,
  "CR": 7752,
  "Ġswim": 7753,
  "bec": 7754,
  "door": 7755,
  "ĠYeah": 7756,
  "Ġgal": 7757,
  "Ġinteract": 7758,
  "amps": 7759,
  "Ġconvinced": 7760,
  "Ġobjective": 7761,
  "Ġdish": 7762,
  "ĠPhotos": 7763,
  "lad": 7764,
  "Ġdowntown": 7765,
  "oil": 7766,
  "Ġtomorrow": 7767,
  "ĠCOM": 7768,
  "Ġsurvival": 7769,
  "shot": 7770,
  "Ġsettlement": 7771,
  "ĠSM": 7772,
  "argo": 7773,
  "eness": 7774,
  "bered": 7775,
  "Min": 7776,
  "Ġmaintained": 7777,
  "Ġbreaks": 7778,
  "bridge": 7779,
  "atar": 7780,
  "agg": 7781,
  "ĠFinally": 7782,
  "left": 7783,
  "Ġrecognition": 7784,
  "ĠPers": 7785,
  "Ġaddressed": 7786,
  "ĠKansas": 7787,
  "Ġvirus": 7788,
  "Ġwhereas": 7789,
  "Ġpapers": 7790,
  "rams": 7791,
  "Ġpleasure": 7792,
  "Ġacquired": 7793,
  "Ġduration": 7794,
  "Ġcalm": 7795,
  "Ġburning": 7796,
  "Ġfolder": 7797,
  "icked": 7798,
  "ĠPy": 7799,
  "Class": 7800,
  "Ġperforming": 7801,
  "Ġwelfare": 7802,
  "jar": 7803,
  "Ġlin": 7804,
  "Ġenhance": 7805,
  "Ġnotion": 7806,
  "fare": 7807,
  "ĠArea": 7808,
  "ĠDiego": 7809,
  "fs": 7810,
  "Ġcovering": 7811,
  "ĠSound": 7812,
  "zing": 7813,
  "Ġcitizen": 7814,
  "Ġphones": 7815,
  "Ġraid": 7816,
  "Ġignored": 7817,
  "ĠObject": 7818,
  "card": 7819,
  "Ġmodified": 7820,
  "Ġrooms": 7821,
  "iah": 7822,
  "Ġsuggesting": 7823,
  "âĢĭ": 7824,
  "El": 7825,
  "Ġclothing": 7826,
  "Ġrh": 7827,
  "ĠHan": 7828,
  "encing": 7829,
  "ĠAustin": 7830,
  "tra": 7831,
  "Ġheaven": 7832,
  "Ġstages": 7833,
  "plus": 7834,
  "ificial": 7835,
  "ĠHo": 7836,
  "ieties": 7837,
  "Ġphrase": 7838,
  "Ġbrill": 7839,
  "actory": 7840,
  "Ġproviders": 7841,
  "Ġsilence": 7842,
  "Ġaer": 7843,
  "ĠAI": 7844,
  "ĠAdventure": 7845,
  "Ġplatforms": 7846,
  "Ġdemonstrated": 7847,
  "ington": 7848,
  "Ġraces": 7849,
  "Ġgrade": 7850,
  "ultane": 7851,
  "ĠThrough": 7852,
  "Ġbow": 7853,
  "Ġflavor": 7854,
  "Ġhistoric": 7855,
  "Ġcolour": 7856,
  "Ġviewed": 7857,
  "elcome": 7858,
  "Ġintervention": 7859,
  "Ġdiversity": 7860,
  "Ġperiods": 7861,
  "Ġreverse": 7862,
  "ĠVery": 7863,
  "ĠLeft": 7864,
  "through": 7865,
  "Ġscrew": 7866,
  "Ġlanding": 7867,
  "Ġpill": 7868,
  "Ġwet": 7869,
  "Ġprotesters": 7870,
  "Ġrepeat": 7871,
  "aved": 7872,
  "erk": 7873,
  "Still": 7874,
  "Ġmayor": 7875,
  "Ġkitchen": 7876,
  "Ġfeaturing": 7877,
  "ĠMuseum": 7878,
  "ĠTournament": 7879,
  "Ġservers": 7880,
  "Ġanybody": 7881,
  "img": 7882,
  "ĠTrade": 7883,
  "Ġclosing": 7884,
  "abel": 7885,
  "orous": 7886,
  "screen": 7887,
  "una": 7888,
  "Ġembarrass": 7889,
  "Ġletting": 7890,
  "Ġthrew": 7891,
  "iley": 7892,
  "Ġchannels": 7893,
  "lan": 7894,
  "Ġsear": 7895,
  "Ġfantastic": 7896,
  "arre": 7897,
  "uzzle": 7898,
  "ĠDer": 7899,
  "Those": 7900,
  "Ġswing": 7901,
  "Ġsheet": 7902,
  "cover": 7903,
  "ogan": 7904,
  "ĠTech": 7905,
  "Ġspoken": 7906,
  "ĠDa": 7907,
  "ĠMountain": 7908,
  "Ġloaded": 7909,
  "Ġfootage": 7910,
  "Ġunl": 7911,
  "ĠPhoenix": 7912,
  "Ġthrowing": 7913,
  "Ġfiring": 7914,
  "Ġtracking": 7915,
  "Ġwidth": 7916,
  "Ġstruggling": 7917,
  "rooms": 7918,
  "otion": 7919,
  "Ġmonthly": 7920,
  "ĠServer": 7921,
  "Ġeggs": 7922,
  "open": 7923,
  "Ġhired": 7924,
  "Ġstayed": 7925,
  "ĠAllen": 7926,
  "Ġstro": 7927,
  "Ġ98": 7928,
  "step": 7929,
  "Ġfabric": 7930,
  "isting": 7931,
  "ĠDom": 7932,
  "Ġdates": 7933,
  "Ġpron": 7934,
  "Ġbasketball": 7935,
  "Ġlucky": 7936,
  "Ġassumed": 7937,
  "esty": 7938,
  "Ġaffairs": 7939,
  "Ġglad": 7940,
  "ĠIndeed": 7941,
  "ĠWord": 7942,
  "Ġjoining": 7943,
  "irts": 7944,
  "ĠSelect": 7945,
  "aware": 7946,
  "Ġnose": 7947,
  "Ġcomplaints": 7948,
  "start": 7949,
  "Ġscoring": 7950,
  "Thanks": 7951,
  "Ġmining": 7952,
  "Ġvisitors": 7953,
  "SH": 7954,
  "Ġdamaged": 7955,
  "Ġcharacteristics": 7956,
  "ĠSix": 7957,
  "rates": 7958,
  "Ġflags": 7959,
  "dog": 7960,
  "Mark": 7961,
  "Ġjoke": 7962,
  "phones": 7963,
  "Ġobst": 7964,
  "ĠCut": 7965,
  "Ġstudied": 7966,
  "icket": 7967,
  "Ġlad": 7968,
  "ĠBra": 7969,
  "Ġkernel": 7970,
  "Ġoverwhelming": 7971,
  "Ġaged": 7972,
  "ĠCond": 7973,
  "Ġroads": 7974,
  "ĠBlock": 7975,
  "made": 7976,
  "odge": 7977,
  "Ġcommands": 7978,
  "Ġoffices": 7979,
  "Ġtut": 7980,
  "Ġreceiver": 7981,
  "ĠFro": 7982,
  "Ġshopping": 7983,
  "ĠStre": 7984,
  "ĠABC": 7985,
  "Ġentertainment": 7986,
  "ĠBow": 7987,
  "orted": 7988,
  "Mc": 7989,
  "Ġreads": 7990,
  "grad": 7991,
  "ĠCollect": 7992,
  "Ġemployer": 7993,
  "Ġanxiety": 7994,
  "alia": 7995,
  "Ġroof": 7996,
  "ĠAmong": 7997,
  "Ġreferring": 7998,
  "itty": 7999,
  "Ġtackle": 8000,
  "Ġbacked": 8001,
  "Ġele": 8002,
  "hour": 8003,
  "Cal": 8004,
  "Ġdefeated": 8005,
  "esp": 8006,
  "Ġseemingly": 8007,
  "was": 8008,
  "ĠJenn": 8009,
  "Ġgene": 8010,
  "Ġdiscount": 8011,
  "Ret": 8012,
  "ECT": 8013,
  "Ġclubs": 8014,
  "Ġsid": 8015,
  "ĠMarsh": 8016,
  "Check": 8017,
  "Ġbeings": 8018,
  "Ġintroduction": 8019,
  "ĠChange": 8020,
  "adows": 8021,
  "ierce": 8022,
  "Ġmeal": 8023,
  "ĠBang": 8024,
  "max": 8025,
  "Ġcollapse": 8026,
  "Ġopens": 8027,
  "Ġecho": 8028,
  "Ġenormous": 8029,
  "Ġwaves": 8030,
  "Ġtap": 8031,
  "ĠRoy": 8032,
  "Ġfarmers": 8033,
  "Related": 8034,
  "aired": 8035,
  "rones": 8036,
  "Ġproportion": 8037,
  "Ġdesigns": 8038,
  "Ġnegotiations": 8039,
  "Ġvirtually": 8040,
  "ĠBatman": 8041,
  "Ġwarn": 8042,
  "Ġlegitimate": 8043,
  "mate": 8044,
  "Ġconvention": 8045,
  ",,": 8046,
  "netic": 8047,
  "Ġcompensation": 8048,
  "Ġpunishment": 8049,
  "Ġye": 8050,
  "Ġtie": 8051,
  "ĠBureau": 8052,
  "ĠBu": 8053,
  "ĠAren": 8054,
  "ĠPhilipp": 8055,
  "Ġknife": 8056,
  "Ġmemories": 8057,
  "ĠRoss": 8058,
  "Ġangle": 8059,
  "ĠThunder": 8060,
  "ĠTour": 8061,
  "Ġcounts": 8062,
  "ĠImp": 8063,
  "Ġeducational": 8064,
  "Ġaccessible": 8065,
  "COM": 8066,
  "Ġdrew": 8067,
  "yer": 8068,
  "Gl": 8069,
  "amine": 8070,
  "ORT": 8071,
  "OB": 8072,
  "master": 8073,
  "Ġtrials": 8074,
  "har": 8075,
  "ĠTrust": 8076,
  "Ġpreferred": 8077,
  "ĠNev": 8078,
  "Ġbin": 8079,
  "Ġcow": 8080,
  "Page": 8081,
  "Ġsignature": 8082,
  "Ġretired": 8083,
  "Ġneighb": 8084,
  "Ġsuspected": 8085,
  "scale": 8086,
  "Ġcapabilities": 8087,
  "Ġrevel": 8088,
  "Ġcheese": 8089,
  "dy": 8090,
  "Ġfailing": 8091,
  "bits": 8092,
  "ĠHeroes": 8093,
  "ĠGhost": 8094,
  "Ġappointed": 8095,
  "uri": 8096,
  "Ġexpanded": 8097,
  "Ġmonitoring": 8098,
  "Jo": 8099,
  "Ġstolen": 8100,
  "ĠSab": 8101,
  "Ġstops": 8102,
  "Ġholiday": 8103,
  "Ġintr": 8104,
  "Car": 8105,
  "Black": 8106,
  "Ġwarming": 8107,
  "ĠAnderson": 8108,
  "Ġproducer": 8109,
  "Med": 8110,
  "Ġaccuracy": 8111,
  "ĠMarvel": 8112,
  "ĠPatrick": 8113,
  "mony": 8114,
  "Ġmini": 8115,
  "acles": 8116,
  "Ġovert": 8117,
  "they": 8118,
  "Ġmembership": 8119,
  "ĠVen": 8120,
  "Ġremoval": 8121,
  "ĠDave": 8122,
  "TY": 8123,
  "mad": 8124,
  "ĠFind": 8125,
  "Ġec": 8126,
  "Ġteeth": 8127,
  "Ġemotion": 8128,
  "Ġperm": 8129,
  "Ġsolely": 8130,
  "Ġextraord": 8131,
  "IGHT": 8132,
  "cal": 8133,
  "Ġdying": 8134,
  "Ġsuspended": 8135,
  "ĠAnthony": 8136,
  "elve": 8137,
  "Ġdad": 8138,
  "ĠFootball": 8139,
  "Ġabandoned": 8140,
  "Ġmarch": 8141,
  "Ġhorror": 8142,
  "âĢ¦\"": 8143,
  "Ġchildhood": 8144,
  "Ġlunch": 8145,
  "ĠAlbert": 8146,
  "block": 8147,
  "ounding": 8148,
  "Ġbone": 8149,
  "organ": 8150,
  "aders": 8151,
  "ĠFlash": 8152,
  "ĠDrive": 8153,
  "Ġtonight": 8154,
  "Ġwars": 8155,
  "ĠFL": 8156,
  "Ġformation": 8157,
  "News": 8158,
  "Ġcompe": 8159,
  "orious": 8160,
  "ĠStaff": 8161,
  "Ġdiscussions": 8162,
  "ĠProtection": 8163,
  "ĠJam": 8164,
  "Ġcriteria": 8165,
  "Ġaccomplish": 8166,
  "izza": 8167,
  "Ġpublisher": 8168,
  "Ġrescue": 8169,
  "ĠTry": 8170,
  "ULL": 8171,
  "ĠSom": 8172,
  "ĠHop": 8173,
  "oret": 8174,
  "ths": 8175,
  "Ġpocket": 8176,
  "ĠInv": 8177,
  "Ġbene": 8178,
  "ĠGuide": 8179,
  "IE": 8180,
  "ĠAlexander": 8181,
  "Ġconcert": 8182,
  "Ġshoes": 8183,
  "Ġvisiting": 8184,
  "Ġrecall": 8185,
  "Ġbub": 8186,
  "Ġrural": 8187,
  "Ġconcrete": 8188,
  "ĠRos": 8189,
  "Next": 8190,
  "Ġloans": 8191,
  "ĠShield": 8192,
  "Ġtrem": 8193,
  "kg": 8194,
  "ĠHarris": 8195,
  "ĠMove": 8196,
  "Ġfate": 8197,
  "ĠCho": 8198,
  "Ġtired": 8199,
  "Ġprincipal": 8200,
  "athy": 8201,
  "Ġsevent": 8202,
  "Ġmood": 8203,
  "Ġstrategic": 8204,
  "Ġdiseases": 8205,
  "Ġheadquarters": 8206,
  "Par": 8207,
  "ige": 8208,
  "Ġguitar": 8209,
  "Only": 8210,
  "Ġreleases": 8211,
  "roph": 8212,
  "Ġ600": 8213,
  "ĠContinue": 8214,
  "igate": 8215,
  "ĠCrit": 8216,
  "system": 8217,
  "Ġdisabled": 8218,
  "Ġunexpected": 8219,
  "Ġunclear": 8220,
  "ĠEst": 8221,
  "Ġstrategies": 8222,
  "ventures": 8223,
  "Ġpassage": 8224,
  "Ġimproving": 8225,
  "Ġreveals": 8226,
  "Ġdecrease": 8227,
  "ova": 8228,
  "Ġannoy": 8229,
  "ĠShort": 8230,
  "ĠLibrary": 8231,
  "nell": 8232,
  "ĠHur": 8233,
  "Ġphotograp": 8234,
  "UI": 8235,
  "Ġsed": 8236,
  "Ge": 8237,
  "Ġdiverse": 8238,
  "Ġencouraged": 8239,
  "Ġbirds": 8240,
  "Ġoperator": 8241,
  "Ġhandful": 8242,
  "Ġclassified": 8243,
  "?)": 8244,
  "Ġdramatic": 8245,
  "ito": 8246,
  "ĠRoom": 8247,
  "Ġcollective": 8248,
  "String": 8249,
  "Ġtemperatures": 8250,
  "ila": 8251,
  "Ġinspect": 8252,
  "Ġmissile": 8253,
  "ĠMayor": 8254,
  "Ġmanual": 8255,
  "Ġsuck": 8256,
  "Ġ97": 8257,
  "Ġuniversal": 8258,
  "Ġpharm": 8259,
  "Ġdisrupt": 8260,
  "iano": 8261,
  "olds": 8262,
  "ĠWalker": 8263,
  "Ġundert": 8264,
  "ĠLas": 8265,
  "ĠWhether": 8266,
  "Ms": 8267,
  "Ġdeny": 8268,
  "ĠCloud": 8269,
  "Ġprovider": 8270,
  "Ġsurviv": 8271,
  "has": 8272,
  "Ġmistakes": 8273,
  "charge": 8274,
  "pled": 8275,
  "rity": 8276,
  "ools": 8277,
  "Ġfails": 8278,
  "ori": 8279,
  "Ġshirt": 8280,
  "Ġ''": 8281,
  "Ġwaters": 8282,
  "Ġease": 8283,
  "Ġscar": 8284,
  "Ġcontents": 8285,
  "mind": 8286,
  "Ġcontribution": 8287,
  "Ġshr": 8288,
  "Ġhanded": 8289,
  "Ġstability": 8290,
  "Em": 8291,
  "Ġmirror": 8292,
  "123": 8293,
  "Ġweigh": 8294,
  "Ġfiction": 8295,
  "istant": 8296,
  "ĠFed": 8297,
  "Ġphysically": 8298,
  "Ġstake": 8299,
  "ĠLewis": 8300,
  "ĠMind": 8301,
  "Ġdemonstrate": 8302,
  "Ġprofits": 8303,
  "olid": 8304,
  "Ġbattles": 8305,
  "Ġdrives": 8306,
  "ĠSony": 8307,
  "!!!": 8308,
  "aration": 8309,
  "Ġprotecting": 8310,
  "Ġyeah": 8311,
  "Ġshame": 8312,
  "olph": 8313,
  "even": 8314,
  "Ġattach": 8315,
  "Ġrepresenting": 8316,
  "iffs": 8317,
  "ĠFreedom": 8318,
  "Ã³": 8319,
  "AK": 8320,
  "Ġincidents": 8321,
  "Ġviewers": 8322,
  "Ġmouse": 8323,
  "Ġclar": 8324,
  "Ġaccordance": 8325,
  "Ġbot": 8326,
  "cor": 8327,
  "ĠSummer": 8328,
  "held": 8329,
  "Ġinnocent": 8330,
  "Ġinitiative": 8331,
  "ols": 8332,
  "Ġspots": 8333,
  "pace": 8334,
  "Ġconventional": 8335,
  "Ġblocked": 8336,
  "attered": 8337,
  "Ġbuck": 8338,
  "120": 8339,
  "Ġtopics": 8340,
  "Äģ": 8341,
  "brid": 8342,
  "Ġunderlying": 8343,
  "ĠMember": 8344,
  "Ġinvestigating": 8345,
  "Ġpregnancy": 8346,
  "ĠBand": 8347,
  "Ġinstances": 8348,
  "PP": 8349,
  "wa": 8350,
  "Good": 8351,
  "ĠCold": 8352,
  "Ġfears": 8353,
  "Ġremarks": 8354,
  "Ġexperiments": 8355,
  "ipt": 8356,
  "Color": 8357,
  "indu": 8358,
  "Ġ93": 8359,
  "Ag": 8360,
  "Both": 8361,
  "Ġjudges": 8362,
  "Object": 8363,
  "Ġparticipation": 8364,
  "ĠStars": 8365,
  "ĠJere": 8366,
  "Ġweekly": 8367,
  "ĠBan": 8368,
  "Ġconversations": 8369,
  "uz": 8370,
  "ĠKick": 8371,
  "Ġinfection": 8372,
  "Ġheroes": 8373,
  "Ġsettled": 8374,
  "Ġstrip": 8375,
  "Ġhal": 8376,
  "Ġdump": 8377,
  "Ġles": 8378,
  "ĠBridge": 8379,
  "Ġwanting": 8380,
  "Force": 8381,
  "Meanwhile": 8382,
  "mn": 8383,
  "Ġgentle": 8384,
  "maker": 8385,
  "ĠGro": 8386,
  "ĠRain": 8387,
  "Ġlift": 8388,
  "ela": 8389,
  "Ġstadium": 8390,
  "Ġdeadly": 8391,
  "Ġriding": 8392,
  "aria": 8393,
  "ĠArmor": 8394,
  "ĠGreece": 8395,
  "reek": 8396,
  "Ġlens": 8397,
  "ĠSa": 8398,
  "Ġgross": 8399,
  "ĠEmer": 8400,
  "agers": 8401,
  "ĠDub": 8402,
  "ĠRh": 8403,
  "Ġarrival": 8404,
  "Ġdesert": 8405,
  "Ġknee": 8406,
  "Ġmargin": 8407,
  "ogg": 8408,
  "ĠPir": 8409,
  "ĠProm": 8410,
  "ivals": 8411,
  "Ġdifferently": 8412,
  "ugs": 8413,
  "Ġbits": 8414,
  "cluded": 8415,
  "Ġsearching": 8416,
  "ĠDu": 8417,
  "umble": 8418,
  "Ġfunctional": 8419,
  "ĠCould": 8420,
  "Ġdesired": 8421,
  "Ġcircuit": 8422,
  "ĠLyn": 8423,
  "ĠGO": 8424,
  "ĠFalse": 8425,
  "':": 8426,
  "alties": 8427,
  "Ġdrove": 8428,
  "ĠShould": 8429,
  "Ġhip": 8430,
  "Ġpros": 8431,
  "ĠNature": 8432,
  "President": 8433,
  "opp": 8434,
  "rat": 8435,
  "Ġconcentration": 8436,
  "Ġfont": 8437,
  "ĠBud": 8438,
  "Ġamid": 8439,
  "Ġrevers": 8440,
  "Bar": 8441,
  "Ġinteraction": 8442,
  "Ġspells": 8443,
  "fil": 8444,
  "Ġcivilians": 8445,
  "utter": 8446,
  "ĠCooper": 8447,
  "ĠBelow": 8448,
  "Ġentrance": 8449,
  "owered": 8450,
  "Ġcontrary": 8451,
  "Ġarc": 8452,
  "ĠOfficer": 8453,
  "Ġpackages": 8454,
  "Ġreserved": 8455,
  "vol": 8456,
  "Ġprinted": 8457,
  "Ġcenters": 8458,
  "Ġintroduce": 8459,
  "ĠKennedy": 8460,
  "Ġodds": 8461,
  "Ġsurely": 8462,
  "Ġindependence": 8463,
  "Ġpassengers": 8464,
  "ĠBeh": 8465,
  "Ġloves": 8466,
  "Ġidentical": 8467,
  "Ġpartnership": 8468,
  "conf": 8469,
  "ĠHide": 8470,
  "Ġconfused": 8471,
  "ĠCow": 8472,
  "Men": 8473,
  "Ġwrest": 8474,
  "Ġholes": 8475,
  "Ġpregnant": 8476,
  "hard": 8477,
  "Ġsignals": 8478,
  "Ġpulling": 8479,
  "Ġpermitted": 8480,
  "Start": 8481,
  "Ġalarm": 8482,
  "ĠCos": 8483,
  "van": 8484,
  "Ġgenerations": 8485,
  "Ġdragon": 8486,
  "ĠEdward": 8487,
  "Ġcontroller": 8488,
  "Sen": 8489,
  "gered": 8490,
  "ĠVik": 8491,
  "Ġapproached": 8492,
  "Thank": 8493,
  "Ġcance": 8494,
  "Ġformula": 8495,
  "ĠSmall": 8496,
  "Ġweakness": 8497,
  "Ġramp": 8498,
  "itudes": 8499,
  "jud": 8500,
  "Ġbrilliant": 8501,
  "ĠEvil": 8502,
  "Sw": 8503,
  "Ġhomeless": 8504,
  "iens": 8505,
  "ĠThird": 8506,
  "TO": 8507,
  "Ġorganic": 8508,
  "Ġpresentation": 8509,
  "ĠDownload": 8510,
  "vation": 8511,
  "Ġassembly": 8512,
  "orable": 8513,
  "ĠBernie": 8514,
  "ĠHelp": 8515,
  "Ġtong": 8516,
  "ĠFight": 8517,
  "Ġbeach": 8518,
  "Book": 8519,
  "ĠLic": 8520,
  "Ġrush": 8521,
  "ĠRound": 8522,
  "oup": 8523,
  "Ġcalculated": 8524,
  "ĠSarah": 8525,
  "Ġoccasionally": 8526,
  "Ġbullet": 8527,
  "Available": 8528,
  "gate": 8529,
  "Ġ91": 8530,
  "Ġhosp": 8531,
  "Ġpromises": 8532,
  "ĠStadium": 8533,
  "Ġsne": 8534,
  "ibl": 8535,
  "such": 8536,
  "Ġconsciousness": 8537,
  "Ġdrama": 8538,
  "Ġlabour": 8539,
  "ĠNin": 8540,
  "Ġutter": 8541,
  "ilation": 8542,
  "Ġgest": 8543,
  "Ġabroad": 8544,
  "Ġsorts": 8545,
  "Ġflav": 8546,
  "UB": 8547,
  "ĠNothing": 8548,
  "Ġmusical": 8549,
  "Ġdrops": 8550,
  "ocated": 8551,
  "Ġgre": 8552,
  "Ġequality": 8553,
  "Ġburden": 8554,
  "Ġvig": 8555,
  "ĠLeader": 8556,
  "Ġceremony": 8557,
  "Ġfighter": 8558,
  "Ġactors": 8559,
  "aman": 8560,
  "Fi": 8561,
  "Ġalign": 8562,
  "Ġelder": 8563,
  "Ġrepresentation": 8564,
  "Ġsymp": 8565,
  "Ġboxes": 8566,
  "ĠDR": 8567,
  "Ġmanifest": 8568,
  "Ġdies": 8569,
  "leton": 8570,
  "Ġmissions": 8571,
  "ethe": 8572,
  "Ġresolve": 8573,
  "Ġfollowers": 8574,
  "Ġkm": 8575,
  "ammed": 8576,
  "Ġsilent": 8577,
  "Ġtiming": 8578,
  "Ġprisoners": 8579,
  "ĠKings": 8580,
  "ĠFive": 8581,
  "Ġtower": 8582,
  "Ġapproaches": 8583,
  "Ġprecisely": 8584,
  "ĠMother": 8585,
  "ĠIss": 8586,
  "Ġkeyboard": 8587,
  "Ġstaying": 8588,
  "Ġmile": 8589,
  "ĠLeon": 8590,
  "ĠBarb": 8591,
  "will": 8592,
  "Ġwider": 8593,
  "Ġtill": 8594,
  "rot": 8595,
  "Ġaccompan": 8596,
  "Ġflour": 8597,
  "aco": 8598,
  "World": 8599,
  "ĠExpress": 8600,
  "Cor": 8601,
  "Ġpleased": 8602,
  "party": 8603,
  "Ġpointing": 8604,
  "Ġroy": 8605,
  "ainer": 8606,
  "Ġwedding": 8607,
  "Ġrequiring": 8608,
  "Ġqualified": 8609,
  "Ġsegment": 8610,
  "END": 8611,
  "Ġsizes": 8612,
  "eals": 8613,
  "Ġcorrupt": 8614,
  "Ġdreams": 8615,
  "ĠMess": 8616,
  "Ġchecking": 8617,
  "Ġpreparing": 8618,
  "Ġactively": 8619,
  "ĠDiff": 8620,
  "Ġlux": 8621,
  "ĠWinter": 8622,
  "acteria": 8623,
  "Ġdeputy": 8624,
  "eries": 8625,
  "Ġknock": 8626,
  "ĠPath": 8627,
  "Ġlip": 8628,
  "roller": 8629,
  "Ġimpression": 8630,
  "Ġcelebrate": 8631,
  "Ġslide": 8632,
  "Ġguests": 8633,
  "Ġclip": 8634,
  "Ġsavings": 8635,
  "Ġcaptain": 8636,
  "Ġlegacy": 8637,
  "Ġwounded": 8638,
  "ACT": 8639,
  "Ġpursue": 8640,
  "Ġsemi": 8641,
  "ĠNeed": 8642,
  "Ġobsc": 8643,
  "Ġchecked": 8644,
  "Code": 8645,
  "lem": 8646,
  "ĠElizabeth": 8647,
  "Ġcenturies": 8648,
  "arded": 8649,
  "Ġevident": 8650,
  "ennis": 8651,
  "atin": 8652,
  "ĠMario": 8653,
  "Christ": 8654,
  "Ġsoldier": 8655,
  "Ġmath": 8656,
  "ĠGil": 8657,
  "Ġdating": 8658,
  "ĠOcean": 8659,
  "Ġmice": 8660,
  "Mus": 8661,
  "hire": 8662,
  "ĠTes": 8663,
  "Size": 8664,
  "Ġmeters": 8665,
  "Ġrocket": 8666,
  "Ġcertificate": 8667,
  "ASS": 8668,
  "Ġgrid": 8669,
  "Dec": 8670,
  "Ġrolling": 8671,
  "commun": 8672,
  "ĠSweden": 8673,
  "bury": 8674,
  "Ġtissue": 8675,
  "Ġmystery": 8676,
  "Ġexamine": 8677,
  "Ġstem": 8678,
  "Ġsits": 8679,
  "Ġhoped": 8680,
  "oting": 8681,
  "Ġdialogue": 8682,
  "Ġpersu": 8683,
  "Watch": 8684,
  "lay": 8685,
  "market": 8686,
  "Ġparallel": 8687,
  "Ġcarries": 8688,
  "Ġphenomenon": 8689,
  "human": 8690,
  "acker": 8691,
  "ĠOx": 8692,
  "ĠGear": 8693,
  "Ġduties": 8694,
  "Ġdose": 8695,
  "Ġscroll": 8696,
  "inf": 8697,
  "Ġsauce": 8698,
  "Ġlandscape": 8699,
  "Ġcoin": 8700,
  "Ġovers": 8701,
  "Ġposting": 8702,
  "about": 8703,
  "Ġfel": 8704,
  "andy": 8705,
  "Ġbold": 8706,
  "Ġfocusing": 8707,
  "effect": 8708,
  "GR": 8709,
  "Ġdeemed": 8710,
  "Ġrecommendations": 8711,
  "Ġstepped": 8712,
  "ĠDeep": 8713,
  "ĠInstagram": 8714,
  "Ġmoderate": 8715,
  "Ġrestricted": 8716,
  "ĠChall": 8717,
  "Ġtob": 8718,
  "ĠEver": 8719,
  "nc": 8720,
  "Ġought": 8721,
  "Ġdrunk": 8722,
  "Ġwise": 8723,
  "ĠMort": 8724,
  "Ġfrequent": 8725,
  "mir": 8726,
  "Ġinterpretation": 8727,
  "Ġdependent": 8728,
  "Ġcoins": 8729,
  "ĠBol": 8730,
  "Video": 8731,
  "ĠJustin": 8732,
  "Ġfatal": 8733,
  "Ġcooking": 8734,
  "Ġconfusion": 8735,
  "Ġcustody": 8736,
  "ĠMorgan": 8737,
  "omach": 8738,
  "Ġrestaurants": 8739,
  "eling": 8740,
  "Ġacknowledged": 8741,
  "Ġther": 8742,
  "Ġgenes": 8743,
  "ching": 8744,
  "Hey": 8745,
  "Ġtactics": 8746,
  "ĠMexican": 8747,
  "Ġhes": 8748,
  "Ġnoting": 8749,
  "rock": 8750,
  "Ġcredits": 8751,
  "Ġemotions": 8752,
  "Ġrepresentatives": 8753,
  "news": 8754,
  "Ġremoving": 8755,
  "Ġtweeted": 8756,
  "ĠCarter": 8757,
  "ĠFixed": 8758,
  "Ġforcing": 8759,
  "Ġspeaker": 8760,
  "lined": 8761,
  "Ġconcepts": 8762,
  "Ġvoices": 8763,
  "oir": 8764,
  "Whe": 8765,
  "ĠSant": 8766,
  "Ġcul": 8767,
  "Ġlady": 8768,
  "Ġarts": 8769,
  "ĠInn": 8770,
  "ĠMachine": 8771,
  "Ġslot": 8772,
  "gly": 8773,
  "Ġathletes": 8774,
  "ĠTemple": 8775,
  "Ġtons": 8776,
  "Ġgolden": 8777,
  "Ġpunch": 8778,
  "ĠGR": 8779,
  "Ġlobby": 8780,
  "Ġpicking": 8781,
  "Ġlifetime": 8782,
  "Each": 8783,
  "zo": 8784,
  "Ġdub": 8785,
  "Ġconsists": 8786,
  "Ġfestival": 8787,
  "amous": 8788,
  "Ġintellig": 8789,
  "words": 8790,
  "ĠSmart": 8791,
  "Ġmagical": 8792,
  "bus": 8793,
  "urities": 8794,
  "ighth": 8795,
  "ĠRuby": 8796,
  "ĠSure": 8797,
  "olving": 8798,
  "Ġjun": 8799,
  "OST": 8800,
  "ĠKit": 8801,
  "ĠFuture": 8802,
  "burn": 8803,
  "ocus": 8804,
  "Ġcourses": 8805,
  "ĠString": 8806,
  "Ġlean": 8807,
  "Ġghost": 8808,
  "Ġoutcomes": 8809,
  "Ġexpense": 8810,
  "Ġeveryday": 8811,
  "Ġacceptable": 8812,
  "Ah": 8813,
  "Ġequipped": 8814,
  "Ġorange": 8815,
  "ĠDutch": 8816,
  "Though": 8817,
  "ĠRank": 8818,
  "QU": 8819,
  "ĠRoberts": 8820,
  "what": 8821,
  "rend": 8822,
  "Ġdisappear": 8823,
  "Ġspawn": 8824,
  "ĠLam": 8825,
  "ois": 8826,
  "Ġdeserve": 8827,
  "Ġminimal": 8828,
  "Ġnervous": 8829,
  "ĠWould": 8830,
  "Ġrook": 8831,
  "Ġresign": 8832,
  "shire": 8833,
  "ĠWorks": 8834,
  "ĠBuild": 8835,
  "Ġaffordable": 8836,
  "ĠGary": 8837,
  "Ġhanging": 8838,
  "ĠSong": 8839,
  "Ġmaintaining": 8840,
  "Ġguards": 8841,
  "Ġexecuted": 8842,
  "Ġquoted": 8843,
  "ĠAndre": 8844,
  "oga": 8845,
  "seless": 8846,
  "info": 8847,
  "Ġtears": 8848,
  "Ġbirthday": 8849,
  "immer": 8850,
  "Ġspectrum": 8851,
  "Ġarchitecture": 8852,
  "Ġrecruit": 8853,
  "arma": 8854,
  "Table": 8855,
  "Ġmonsters": 8856,
  "Ġdestination": 8857,
  "Ġattractive": 8858,
  "ĠMoreover": 8859,
  "Ġpresents": 8860,
  "THE": 8861,
  "Ġreply": 8862,
  "pton": 8863,
  "Ġcum": 8864,
  "Ġdelight": 8865,
  "Ġaffects": 8866,
  "Ġdonations": 8867,
  "ĠToy": 8868,
  "ĠHim": 8869,
  "Ġovercome": 8870,
  "itched": 8871,
  "ĠHat": 8872,
  "ĠBeast": 8873,
  "bott": 8874,
  "Run": 8875,
  "Ġhunting": 8876,
  "di": 8877,
  "Ġsessions": 8878,
  "estyle": 8879,
  "oids": 8880,
  "Yeah": 8881,
  "Ġcommunicate": 8882,
  "Ġcomedy": 8883,
  "ĠYang": 8884,
  "Ġbelt": 8885,
  "Ġpredicted": 8886,
  "Play": 8887,
  "Ġimportantly": 8888,
  "Ġremarkable": 8889,
  "David": 8890,
  "Ġbind": 8891,
  "imp": 8892,
  "ĠNa": 8893,
  "IES": 8894,
  "Ġcharity": 8895,
  "vas": 8896,
  "math": 8897,
  "oker": 8898,
  "Ġcaps": 8899,
  "ĠHal": 8900,
  "2000": 8901,
  "ean": 8902,
  "Ġfleet": 8903,
  "Ġrecre": 8904,
  "Right": 8905,
  "Ġsleeping": 8906,
  "ijing": 8907,
  "kind": 8908,
  "Ġdesignated": 8909,
  "Ġanimation": 8910,
  "kee": 8911,
  "ĠIntrodu": 8912,
  "Ġdelayed": 8913,
  "Ġcurious": 8914,
  "Use": 8915,
  "Ġlect": 8916,
  "Ġinnovation": 8917,
  "Ġloading": 8918,
  "Ġdispute": 8919,
  "ctic": 8920,
  "irds": 8921,
  "ĠBY": 8922,
  "Ġnurs": 8923,
  "ĠValue": 8924,
  "IONS": 8925,
  "ĠHum": 8926,
  "Ġtemplate": 8927,
  "mers": 8928,
  "Ġappearances": 8929,
  "Ġsake": 8930,
  "Ġbeneath": 8931,
  "Ġeuro": 8932,
  "Ġstudying": 8933,
  "Ġexamined": 8934,
  "Ġeager": 8935,
  "Ġcoaches": 8936,
  "Ġimper": 8937,
  "chi": 8938,
  "Ġproduces": 8939,
  "ĠEveryone": 8940,
  "Ġgirlfriend": 8941,
  "Ġhire": 8942,
  "Ġsuitable": 8943,
  "opy": 8944,
  "ĠDuke": 8945,
  "fish": 8946,
  "first": 8947,
  "ĠObs": 8948,
  "Ġinterior": 8949,
  "ĠBruce": 8950,
  "ĠRy": 8951,
  "Ġconsiderable": 8952,
  "Ġforecast": 8953,
  "ĠALL": 8954,
  ":\"": 8955,
  "ĠMail": 8956,
  "Ġinstantly": 8957,
  "ĠChannel": 8958,
  "Ġpicks": 8959,
  "Ġtent": 8960,
  "oli": 8961,
  "bling": 8962,
  "ello": 8963,
  "bu": 8964,
  "Ġinch": 8965,
  "Ġlogo": 8966,
  "Ġcooperation": 8967,
  "Ġwalks": 8968,
  "ĠFestival": 8969,
  "ĠKy": 8970,
  "Ġlegally": 8971,
  "Ġgri": 8972,
  "Sl": 8973,
  "Ġthreatening": 8974,
  "flow": 8975,
  "Ġdismissed": 8976,
  "cap": 8977,
  "ele": 8978,
  "Ġroots": 8979,
  "ĠHaving": 8980,
  "umbled": 8981,
  "ĠFun": 8982,
  "ĠSearch": 8983,
  "plex": 8984,
  "Ġdiscussing": 8985,
  "Free": 8986,
  "fit": 8987,
  "Ġrefuse": 8988,
  "Ġmanaging": 8989,
  "walk": 8990,
  "Ġprofessionals": 8991,
  "Ġguidance": 8992,
  "Ġuniversities": 8993,
  "Finally": 8994,
  "ASE": 8995,
  "ĠAuto": 8996,
  "ĠHad": 8997,
  "Ġanniversary": 8998,
  "product": 8999,
  "Ġtransit": 9000,
  "Ġrestore": 9001,
  "Ġexplaining": 9002,
  "Ġasset": 9003,
  "Ġtransferred": 9004,
  "Ġburst": 9005,
  "ĠMagazine": 9006,
  "ĠBR": 9007,
  "gged": 9008,
  "ĠHE": 9009,
  "bet": 9010,
  "ĠLady": 9011,
  "erves": 9012,
  "Ġmeets": 9013,
  "white": 9014,
  "Log": 9015,
  "Ġcorresponding": 9016,
  "Ġinsisted": 9017,
  "GG": 9018,
  "Ġsurrounded": 9019,
  "Ġtens": 9020,
  "Ġlane": 9021,
  "Ġcoinc": 9022,
  "home": 9023,
  "Ġexisted": 9024,
  "ected": 9025,
  "lamm": 9026,
  "Ġskept": 9027,
  "exp": 9028,
  "Ġperception": 9029,
  "iev": 9030,
  "ĠBeing": 9031,
  "oft": 9032,
  "Ġadopt": 9033,
  "Windows": 9034,
  "Ġsatellite": 9035,
  "ASH": 9036,
  "Ġinfant": 9037,
  "ĠMeanwhile": 9038,
  "cm": 9039,
  "oca": 9040,
  "ĠTreat": 9041,
  "actor": 9042,
  "Ġtobacco": 9043,
  "ĠNorm": 9044,
  "Ġflesh": 9045,
  "Ġje": 9046,
  "oop": 9047,
  "ĠHeaven": 9048,
  "Ġbeating": 9049,
  "anim": 9050,
  "Ġgathering": 9051,
  "GO": 9052,
  "abe": 9053,
  "ĠJonathan": 9054,
  "ĠSafety": 9055,
  "Ġbadly": 9056,
  "prot": 9057,
  "Ġchoosing": 9058,
  "Ġcontacted": 9059,
  "Ġquit": 9060,
  "Ġdistur": 9061,
  "Ġstir": 9062,
  "Ġtoken": 9063,
  "Det": 9064,
  "ĠPa": 9065,
  "some": 9066,
  "Ġlimitations": 9067,
  "build": 9068,
  "rell": 9069,
  "blem": 9070,
  "ĠMom": 9071,
  "Ġveterans": 9072,
  "ĠHu": 9073,
  "Ġtrends": 9074,
  "arer": 9075,
  "may": 9076,
  "AST": 9077,
  "Ġwondering": 9078,
  "ĠClark": 9079,
  "normal": 9080,
  "Ġseparated": 9081,
  "Ġdesp": 9082,
  "stic": 9083,
  "ĠNik": 9084,
  "ĠFarm": 9085,
  "Ġenthusi": 9086,
  "good": 9087,
  "Ġmart": 9088,
  "Ġexplosion": 9089,
  "Link": 9090,
  "Ġinsight": 9091,
  "Ġconvenient": 9092,
  "support": 9093,
  "ĠSimon": 9094,
  "ĠFigure": 9095,
  "Ġoverseas": 9096,
  "Ġpride": 9097,
  "ĠCas": 9098,
  "note": 9099,
  "mg": 9100,
  "Ġdisplays": 9101,
  "content": 9102,
  "Ġtraveling": 9103,
  "Ġhospitals": 9104,
  "ĠPast": 9105,
  "Ġdefendant": 9106,
  "Ġstreaming": 9107,
  "mble": 9108,
  "uki": 9109,
  "Ġchocolate": 9110,
  "ĠCastle": 9111,
  "Ġinterrupt": 9112,
  "ĠRow": 9113,
  "Ġbugs": 9114,
  "ĠRather": 9115,
  "liest": 9116,
  "LY": 9117,
  "ĠJean": 9118,
  "otton": 9119,
  "ĠDean": 9120,
  "ĠWarren": 9121,
  "oda": 9122,
  "Ġhighlights": 9123,
  "Ġirre": 9124,
  "Ġballs": 9125,
  "Ġdemanding": 9126,
  "URE": 9127,
  "ĠLuke": 9128,
  "Figure": 9129,
  "stop": 9130,
  "onia": 9131,
  "zone": 9132,
  "izers": 9133,
  "Ġawarded": 9134,
  "ĠHart": 9135,
  "ĠSN": 9136,
  "pling": 9137,
  "Ġsour": 9138,
  "ĠPixel": 9139,
  "Ġfet": 9140,
  "Ġfer": 9141,
  "ĠKhan": 9142,
  "TON": 9143,
  "father": 9144,
  "Ġextraordinary": 9145,
  "Ġdesktop": 9146,
  "itivity": 9147,
  "ĠAntonio": 9148,
  "Ġears": 9149,
  "obby": 9150,
  "ouses": 9151,
  "icient": 9152,
  "minute": 9153,
  "Ġconviction": 9154,
  "Ġgarden": 9155,
  "Ġsatisfied": 9156,
  "fold": 9157,
  "OK": 9158,
  "ĠThink": 9159,
  "Ġprogramme": 9160,
  "Ġstomach": 9161,
  "Ġholy": 9162,
  "Ġthreshold": 9163,
  "ĠEverything": 9164,
  "rah": 9165,
  "Ġbother": 9166,
  "Ġbrands": 9167,
  "Value": 9168,
  "ĠTed": 9169,
  "ĠPlanet": 9170,
  "Ġpink": 9171,
  "ĠFurthermore": 9172,
  "sa": 9173,
  "PE": 9174,
  "reck": 9175,
  "otte": 9176,
  "Ġlanded": 9177,
  "gets": 9178,
  "Ġhealthcare": 9179,
  "Ġfits": 9180,
  "ĠSyd": 9181,
  "ATCH": 9182,
  "Ġfights": 9183,
  "Ġ---": 9184,
  "Ġtoxic": 9185,
  "ĠCorn": 9186,
  "ĠChel": 9187,
  "Ġtelephone": 9188,
  "ĠPant": 9189,
  "Ġmysterious": 9190,
  "Ġwitnesses": 9191,
  "agu": 9192,
  "Ġquestioned": 9193,
  "ĠRemember": 9194,
  "ĠIdent": 9195,
  "Ġridiculous": 9196,
  "Ġprayer": 9197,
  "Ġscientist": 9198,
  "Ġ1950": 9199,
  "ĠAqu": 9200,
  "Ġunderground": 9201,
  "mare": 9202,
  "ĠLater": 9203,
  "wich": 9204,
  "Ġhosts": 9205,
  "Ġerr": 9206,
  "Ġgrants": 9207,
  "Ġsummon": 9208,
  "early": 9209,
  "ĠClear": 9210,
  "ĠPrim": 9211,
  "Ġguaranteed": 9212,
  "apper": 9213,
  "Ġrice": 9214,
  "ĠSean": 9215,
  "Ġfled": 9216,
  "rust": 9217,
  "Ġ360": 9218,
  "tery": 9219,
  "Ġshocked": 9220,
  "BR": 9221,
  "ĠOil": 9222,
  "ĠAllah": 9223,
  "Ġpartly": 9224,
  "Ġignor": 9225,
  "Ġtransmission": 9226,
  "Ġhopefully": 9227,
  "Ġlesson": 9228,
  "Leg": 9229,
  "Yet": 9230,
  "table": 9231,
  "rett": 9232,
  "Ġboards": 9233,
  "Ġbacteria": 9234,
  "aru": 9235,
  "Ġsnap": 9236,
  ".'\"": 9237,
  "tem": 9238,
  "heart": 9239,
  "Ġavailability": 9240,
  "Ġwisdom": 9241,
  "Ġpriest": 9242,
  "Open": 9243,
  "Ġspan": 9244,
  "Ġconvince": 9245,
  "rac": 9246,
  "Ġfo": 9247,
  "Ġsafely": 9248,
  "Ġconverted": 9249,
  "ĠOlympic": 9250,
  "Ġreserve": 9251,
  "Ġhealing": 9252,
  "ĠMine": 9253,
  "Max": 9254,
  "ĠGraham": 9255,
  "Dem": 9256,
  "Ġpipeline": 9257,
  "Ġapplying": 9258,
  "ĠCharlie": 9259,
  "Ġcave": 9260,
  "Ġrewards": 9261,
  "Pal": 9262,
  "Ġpopularity": 9263,
  "looking": 9264,
  "ĠSword": 9265,
  "Ġelectron": 9266,
  "Ġintegrity": 9267,
  "Ġgrace": 9268,
  "Ġburned": 9269,
  "two": 9270,
  "Ġ180": 9271,
  "Ġgym": 9272,
  "ricane": 9273,
  "ĠTam": 9274,
  "Ġvel": 9275,
  "ĠNi": 9276,
  "Ġisolated": 9277,
  "ĠMedicine": 9278,
  "Ġbackup": 9279,
  "Ġpromoting": 9280,
  "Ġcommander": 9281,
  "Ġflee": 9282,
  "ĠRussell": 9283,
  "Ġforgotten": 9284,
  "Ġresidence": 9285,
  "mons": 9286,
  "Ġwand": 9287,
  "Ġmeaningful": 9288,
  "Ġwealthy": 9289,
  "Ġrifle": 9290,
  "strong": 9291,
  "rowing": 9292,
  "plan": 9293,
  "âĢ¦.": 9294,
  "Ġexpanding": 9295,
  "Ġreceives": 9296,
  "SI": 9297,
  "REE": 9298,
  "Put": 9299,
  "Ġbriefly": 9300,
  "rive": 9301,
  "Ġ__": 9302,
  "Ġchip": 9303,
  "Ġhaz": 9304,
  "Ġprize": 9305,
  "ĠThings": 9306,
  "ACE": 9307,
  "ockets": 9308,
  "Story": 9309,
  "Ġmild": 9310,
  "ailing": 9311,
  "ĠYe": 9312,
  "ĠKa": 9313,
  "Ġanonymous": 9314,
  "Ġstruggled": 9315,
  "Ġoutrage": 9316,
  "Ġleather": 9317,
  "Ġworlds": 9318,
  "Ġbroader": 9319,
  "ĠBetter": 9320,
  "Ġtear": 9321,
  "Ext": 9322,
  "mi": 9323,
  "Did": 9324,
  "ĠPu": 9325,
  "pin": 9326,
  "Ġspeakers": 9327,
  "Ġborders": 9328,
  "Ġfigured": 9329,
  "Ġsimultaneously": 9330,
  "Ġcharging": 9331,
  "Ġurged": 9332,
  "Ġconj": 9333,
  "ĠGordon": 9334,
  "Ġdocumentary": 9335,
  "Share": 9336,
  "itol": 9337,
  "ONE": 9338,
  "ĠGarden": 9339,
  "hatt": 9340,
  "ĠThompson": 9341,
  "Ġtanks": 9342,
  "Ġlessons": 9343,
  "track": 9344,
  "Ġoutstanding": 9345,
  "Ġvolunteers": 9346,
  "Ġspray": 9347,
  "Ġmanagers": 9348,
  "large": 9349,
  "Ġcamps": 9350,
  "Ġartificial": 9351,
  "ĠRu": 9352,
  "Ġbags": 9353,
  "Ġcompatible": 9354,
  "ĠBlade": 9355,
  "Ġfed": 9356,
  "Ġargues": 9357,
  "FI": 9358,
  "Ġunfair": 9359,
  "Ġcorn": 9360,
  "Ġoffset": 9361,
  "Ġdirections": 9362,
  "Ġdisappointed": 9363,
  "Ġviewing": 9364,
  "ME": 9365,
  "ocity": 9366,
  "Ġtowns": 9367,
  "Ġlayers": 9368,
  "Ġrolled": 9369,
  "Ġjumped": 9370,
  "incoln": 9371,
  "Ġsuppose": 9372,
  "cha": 9373,
  "Ġburied": 9374,
  "Ġsixth": 9375,
  "Ben": 9376,
  "ressing": 9377,
  "OUR": 9378,
  "Ġwound": 9379,
  "Ġcycl": 9380,
  "Ġagreements": 9381,
  "Ġdecor": 9382,
  "Ġclosest": 9383,
  "ĠMit": 9384,
  "Ġmixture": 9385,
  "Ġfluid": 9386,
  "Sign": 9387,
  "Ġpist": 9388,
  "asket": 9389,
  "abling": 9390,
  "Ġracing": 9391,
  "hero": 9392,
  "riel": 9393,
  "assy": 9394,
  "Ġcheaper": 9395,
  "ben": 9396,
  "Ġvertical": 9397,
  "ĠReading": 9398,
  "Ġhelicop": 9399,
  "Ġsacrifice": 9400,
  "aya": 9401,
  "ĠLes": 9402,
  "ĠStudio": 9403,
  "ĠAnna": 9404,
  "acer": 9405,
  "ĠRat": 9406,
  "ĠBeck": 9407,
  "ĠDick": 9408,
  "ĠACT": 9409,
  "Ġtexture": 9410,
  "ĠOwn": 9411,
  "Ġsmartphone": 9412,
  "Ġforb": 9413,
  "import": 9414,
  "Ġdefending": 9415,
  "ilst": 9416,
  "rer": 9417,
  "Ġoh": 9418,
  "ĠJeremy": 9419,
  "Ġrespective": 9420,
  "/.": 9421,
  "Ġdrinks": 9422,
  "ĠWi": 9423,
  "Ġbands": 9424,
  "Ġgrip": 9425,
  "ĠBuy": 9426,
  "Ġopenly": 9427,
  "Ġreviewed": 9428,
  "pert": 9429,
  "Ġverify": 9430,
  "ĠCole": 9431,
  "Ġshelter": 9432,
  "ĠImperial": 9433,
  "Ġsuggestions": 9434,
  "Ġexplicitly": 9435,
  "Ġslave": 9436,
  "Ġcompeting": 9437,
  "Ġpromising": 9438,
  "Ġsoccer": 9439,
  "Ġdistract": 9440,
  "ĠTokyo": 9441,
  "Ġaccompanied": 9442,
  "sur": 9443,
  "Ġidentification": 9444,
  "asma": 9445,
  "ppers": 9446,
  "Ġsubtle": 9447,
  "ĠUnit": 9448,
  "natural": 9449,
  "Ġsurvived": 9450,
  "Ġflaw": 9451,
  "ĠHoll": 9452,
  "Ġtutorial": 9453,
  "ĠChance": 9454,
  "Ġarguing": 9455,
  "forward": 9456,
  "Ġtum": 9457,
  "itis": 9458,
  "Ġhiding": 9459,
  "ĠTan": 9460,
  "ĠBuilding": 9461,
  "ĠVin": 9462,
  "ĠNotes": 9463,
  "Ġemerging": 9464,
  "Ġpreparation": 9465,
  "Ġprost": 9466,
  "Ġsuspects": 9467,
  "Ġdealt": 9468,
  "ĠPear": 9469,
  "Ġsteady": 9470,
  "Ġdecreased": 9471,
  "Ġgradually": 9472,
  "orses": 9473,
  "Serv": 9474,
  "hr": 9475,
  "Ġdirty": 9476,
  "ĠBarn": 9477,
  "Ġdil": 9478,
  "Ġcalendar": 9479,
  "Ġchamber": 9480,
  "bb": 9481,
  "Ġpassenger": 9482,
  "ateful": 9483,
  "ĠSydney": 9484,
  "ĠGot": 9485,
  "Ġdarkness": 9486,
  "Ġdefect": 9487,
  "Ġpacked": 9488,
  "assion": 9489,
  "Ġgods": 9490,
  "Ġharsh": 9491,
  "ICK": 9492,
  "Ġoxygen": 9493,
  "Ġvisits": 9494,
  "Ġblade": 9495,
  "Ġkiller": 9496,
  "Pack": 9497,
  "enny": 9498,
  "Ġdivine": 9499,
  "being": 9500,
  "Ġengines": 9501,
  "Ġcats": 9502,
  "ĠPhill": 9503,
  "Ġtongue": 9504,
  "Ġradiation": 9505,
  "erer": 9506,
  "mem": 9507,
  "Ġcouples": 9508,
  "Ġphysics": 9509,
  "awks": 9510,
  "ĠBloom": 9511,
  "Ġworship": 9512,
  "uter": 9513,
  "Ġsentenced": 9514,
  "Ġdisk": 9515,
  "ĠMarg": 9516,
  "Ġoptional": 9517,
  "Ġbabies": 9518,
  "Ġseeds": 9519,
  "ĠScottish": 9520,
  "Ġthy": 9521,
  "]]": 9522,
  "Ġrecovered": 9523,
  "inge": 9524,
  "Ġpowder": 9525,
  "Ġlips": 9526,
  "Ġdesigner": 9527,
  "Ġcourage": 9528,
  "Ġchaos": 9529,
  "Ġcarrier": 9530,
  "High": 9531,
  "len": 9532,
  "Ġroutes": 9533,
  "Fil": 9534,
  "NOT": 9535,
  "wall": 9536,
  "Ġengaging": 9537,
  "orer": 9538,
  "Ġcompletion": 9539,
  "ĠTa": 9540,
  "Ġprivilege": 9541,
  "ĠOrange": 9542,
  "Ġbones": 9543,
  "ĠME": 9544,
  "Ġengineer": 9545,
  "ĠUniverse": 9546,
  "nie": 9547,
  "Ġhearts": 9548,
  "ĠGre": 9549,
  "ussion": 9550,
  "ĠNut": 9551,
  "ĠOw": 9552,
  "instein": 9553,
  "Ġbulk": 9554,
  "Ġposter": 9555,
  "Ġattending": 9556,
  "urable": 9557,
  "Ġlicensed": 9558,
  "etry": 9559,
  "Ġblast": 9560,
  "elled": 9561,
  "die": 9562,
  "Have": 9563,
  "ĠFlame": 9564,
  "Ġprofound": 9565,
  "Ġparticipating": 9566,
  "ĠEss": 9567,
  "Ġregarded": 9568,
  "ĠSpell": 9569,
  "Ġsons": 9570,
  "owned": 9571,
  "Ġmerc": 9572,
  "Ġexperimental": 9573,
  "hs": 9574,
  "inos": 9575,
  "Ġcomply": 9576,
  "Ġseized": 9577,
  "ĠGirls": 9578,
  "oned": 9579,
  "ĠFle": 9580,
  "Ġconstructed": 9581,
  "Ġhosted": 9582,
  "Ġscared": 9583,
  "actic": 9584,
  "ĠIslands": 9585,
  "ĠMORE": 9586,
  "Ġbless": 9587,
  "Ġblocking": 9588,
  "Ġchips": 9589,
  "Ps": 9590,
  "Ġox": 9591,
  "Ġlighting": 9592,
  "Ġneighbors": 9593,
  "ĠUb": 9594,
  "aro": 9595,
  "Ġbeef": 9596,
  "armed": 9597,
  "itate": 9598,
  "ĠQuick": 9599,
  "Ġoccupied": 9600,
  "Ġaims": 9601,
  "ĠAdditionally": 9602,
  "ĠInterest": 9603,
  "Ġdramatically": 9604,
  "Ġheal": 9605,
  "Ġpainting": 9606,
  "Ġengineers": 9607,
  "MM": 9608,
  "ĠMust": 9609,
  "Ġquantity": 9610,
  "Paul": 9611,
  "Ġearnings": 9612,
  "stra": 9613,
  "Ġstance": 9614,
  "Ġdropping": 9615,
  "Ġdressed": 9616,
  "Make": 9617,
  "Ġprompted": 9618,
  "Ġspeeds": 9619,
  "omer": 9620,
  "Ġdescribing": 9621,
  "ĠLie": 9622,
  "mented": 9623,
  "Ġnowhere": 9624,
  "Ġinstruction": 9625,
  "fortable": 9626,
  "Ġcm": 9627,
  "ĠNatural": 9628,
  "Ġinquiry": 9629,
  "Ġpressed": 9630,
  "forced": 9631,
  "Ġraises": 9632,
  "ĠNetflix": 9633,
  "ĠSide": 9634,
  "Ġouter": 9635,
  "Ġamongst": 9636,
  "ims": 9637,
  "Ġclimb": 9638,
  "never": 9639,
  "Ġcombine": 9640,
  "ding": 9641,
  "Ġsignificance": 9642,
  "Ġremembered": 9643,
  "ĠTel": 9644,
  "ĠScar": 9645,
  "ĠJane": 9646,
  "Ġcoup": 9647,
  "bas": 9648,
  "Ġterminal": 9649,
  ",-": 9650,
  "OH": 9651,
  "Ġtension": 9652,
  "Ġwings": 9653,
  "ĠMyster": 9654,
  "ĠUnlike": 9655,
  "ĠAli": 9656,
  "Ġnaked": 9657,
  "books": 9658,
  "ĠMun": 9659,
  "Ġdesperate": 9660,
  "hy": 9661,
  "IND": 9662,
  "Ġunlock": 9663,
  "Ġhandled": 9664,
  "Ġdisappeared": 9665,
  "Ġgenre": 9666,
  "Ġdetermination": 9667,
  "Stream": 9668,
  "iko": 9669,
  "Ġacknowledge": 9670,
  "Jan": 9671,
  "Pat": 9672,
  "Ġ2020": 9673,
  "Ġpainful": 9674,
  "Ġcurve": 9675,
  "Ġbombs": 9676,
  "storm": 9677,
  "ĠMetal": 9678,
  "ĠFig": 9679,
  "ĠAaron": 9680,
  "anches": 9681,
  "Ġinspiration": 9682,
  "Ġexhaust": 9683,
  "ashi": 9684,
  "Ġritual": 9685,
  "ĠChelsea": 9686,
  "Ġpromotion": 9687,
  "ĠHung": 9688,
  "ĠWard": 9689,
  "iva": 9690,
  "Ġtoss": 9691,
  "allow": 9692,
  "ĠFrancis": 9693,
  "Dep": 9694,
  "Ġhappiness": 9695,
  "ĠGlass": 9696,
  "Ġstrengthen": 9697,
  "oa": 9698,
  "Ġbuttons": 9699,
  "ĠMurray": 9700,
  "Ġkicked": 9701,
  "ĠTalk": 9702,
  "ĠSeveral": 9703,
  "ĠZero": 9704,
  "Ġdrone": 9705,
  "ulk": 9706,
  "Ġcam": 9707,
  "Ġpreventing": 9708,
  "ĠAx": 9709,
  "Ġcruel": 9710,
  "Ġfloat": 9711,
  "Ġfiling": 9712,
  "ĠGrant": 9713,
  "Ġrib": 9714,
  "Ġchampionship": 9715,
  "Ġstyles": 9716,
  "Ġcake": 9717,
  "Ġbuilds": 9718,
  "ĠSelf": 9719,
  "Ġepic": 9720,
  "oyd": 9721,
  "Bel": 9722,
  "ĠStew": 9723,
  "ĠBeyond": 9724,
  "Ġouts": 9725,
  "Ġsolo": 9726,
  "ĠTree": 9727,
  "Ġpreserve": 9728,
  "Ġtub": 9729,
  "ARE": 9730,
  "roc": 9731,
  "ĠImpro": 9732,
  "ĠWright": 9733,
  "Ġbund": 9734,
  "Ġoccasional": 9735,
  "Second": 9736,
  "Ġinteractions": 9737,
  "formed": 9738,
  "sing": 9739,
  "Ġowns": 9740,
  "Ġhockey": 9741,
  "Ġlogical": 9742,
  "Ġescal": 9743,
  "ĠCrown": 9744,
  "Ġstopping": 9745,
  "Ġexcuse": 9746,
  "second": 9747,
  "Ġoperated": 9748,
  "Ġreaches": 9749,
  "Ġpollution": 9750,
  "ĠBrooklyn": 9751,
  "Ġdelete": 9752,
  "Ġhash": 9753,
  "Block": 9754,
  "aha": 9755,
  "Ġshorter": 9756,
  "piece": 9757,
  "ĠBreak": 9758,
  "Ġintensity": 9759,
  "ĠAlan": 9760,
  "?!": 9761,
  "anded": 9762,
  "Ġneighbour": 9763,
  "Ġfires": 9764,
  "fly": 9765,
  "ĠOrleans": 9766,
  "White": 9767,
  "ĠDawn": 9768,
  "Ġsettle": 9769,
  "Ġexecute": 9770,
  "BM": 9771,
  "Ġlifestyle": 9772,
  "Ġclicking": 9773,
  "Ġtrailer": 9774,
  "Ġmountains": 9775,
  "zes": 9776,
  "pes": 9777,
  "Ġpressing": 9778,
  "Ġbail": 9779,
  "ĠOrganization": 9780,
  "Ġpir": 9781,
  "Ġthirty": 9782,
  "Ġelectrical": 9783,
  "ĠRap": 9784,
  "ĠStrike": 9785,
  "Ġdemanded": 9786,
  "Ġbacking": 9787,
  "speed": 9788,
  "Ġmothers": 9789,
  "ĠBody": 9790,
  "powered": 9791,
  "leading": 9792,
  "Never": 9793,
  "Ġgrave": 9794,
  "AW": 9795,
  "Ġinterviewed": 9796,
  "ĠGab": 9797,
  "ĠFat": 9798,
  "Ġrookie": 9799,
  "uu": 9800,
  "Ġdepos": 9801,
  "Ġampl": 9802,
  "ĠHeat": 9803,
  "Ġpeaceful": 9804,
  "ieve": 9805,
  "Ġdiver": 9806,
  "ĠVictoria": 9807,
  "Ġmic": 9808,
  "Ġstating": 9809,
  "Ġlung": 9810,
  "Ġcriticized": 9811,
  "Ġvaccine": 9812,
  "ĠLoading": 9813,
  "urse": 9814,
  "Take": 9815,
  "ĠFran": 9816,
  "ĠRobin": 9817,
  "Ġdetected": 9818,
  "Ġadjusted": 9819,
  "Ġopposing": 9820,
  "Error": 9821,
  "Count": 9822,
  "Ġconflicts": 9823,
  "Ġow": 9824,
  "Ġmatching": 9825,
  "hh": 9826,
  "ĠAF": 9827,
  "oder": 9828,
  "acre": 9829,
  "ĠPick": 9830,
  "ĠSolar": 9831,
  "ĠDal": 9832,
  "Oct": 9833,
  "ĠBatt": 9834,
  "Ġengagement": 9835,
  "Ġliberty": 9836,
  "Ġtalented": 9837,
  ".....": 9838,
  "Ġhorrible": 9839,
  "Ġsurprisingly": 9840,
  "feed": 9841,
  "icating": 9842,
  "ĠLED": 9843,
  "Ġfemales": 9844,
  "Station": 9845,
  "eller": 9846,
  "Ġmechanical": 9847,
  "ĠVar": 9848,
  "Ġrobust": 9849,
  "otta": 9850,
  "Ġretain": 9851,
  "Ġda": 9852,
  "Ġdeployed": 9853,
  "del": 9854,
  "ĠAndy": 9855,
  "web": 9856,
  "Ġna": 9857,
  "ĠMichel": 9858,
  "Ġpartially": 9859,
  "Ġcrown": 9860,
  "ĠMaj": 9861,
  "ĠBlu": 9862,
  "Day": 9863,
  "INT": 9864,
  "gi": 9865,
  "chell": 9866,
  "ĠBab": 9867,
  "Ġtheft": 9868,
  "Ġtube": 9869,
  "ĠLincoln": 9870,
  "Ġwore": 9871,
  "Ġric": 9872,
  "Ġobserve": 9873,
  "Ġcodes": 9874,
  "main": 9875,
  "WH": 9876,
  "ĠSL": 9877,
  "Ġmas": 9878,
  "arest": 9879,
  "OUT": 9880,
  "ante": 9881,
  "Ġ**": 9882,
  "Ġyours": 9883,
  "Ġoccasions": 9884,
  "Ġrecalled": 9885,
  "ĠDriver": 9886,
  "Ġvocal": 9887,
  "Ġbathroom": 9888,
  "Ġshops": 9889,
  "Ġcollaboration": 9890,
  "ĠCell": 9891,
  "Char": 9892,
  "Super": 9893,
  "Cre": 9894,
  "Ġtorn": 9895,
  "Ġeconomics": 9896,
  "ĠSem": 9897,
  "Ġshoulders": 9898,
  "Ġexpecting": 9899,
  "Ġexamination": 9900,
  "olas": 9901,
  "ĠAmb": 9902,
  "ĠIC": 9903,
  "Ġlayout": 9904,
  "Ġfloating": 9905,
  "fi": 9906,
  "Ġtremendous": 9907,
  "Work": 9908,
  "ĠLightning": 9909,
  "Ġpray": 9910,
  "BE": 9911,
  "Ġtempt": 9912,
  "Ġfishing": 9913,
  "Ġmarry": 9914,
  "neg": 9915,
  "ĠStudy": 9916,
  "Ġreck": 9917,
  "Ġdispos": 9918,
  "oning": 9919,
  "Ġmerch": 9920,
  "ĠGib": 9921,
  "ĠDVD": 9922,
  "whe": 9923,
  "Ġenvironments": 9924,
  "ooting": 9925,
  "ĠModern": 9926,
  "Ġreflects": 9927,
  "Ġhoney": 9928,
  "Ġgut": 9929,
  "dec": 9930,
  "Action": 9931,
  "Ġhouseholds": 9932,
  "Ġster": 9933,
  "Ġtemple": 9934,
  "Ġfavourite": 9935,
  "Ġdeadline": 9936,
  "ĠLE": 9937,
  "Three": 9938,
  "ĠWithin": 9939,
  "Aug": 9940,
  "Ġnights": 9941,
  "Ġinvalid": 9942,
  "when": 9943,
  "ĠðŁ": 9944,
  "ista": 9945,
  "Ġhostile": 9946,
  "Ġally": 9947,
  "Ġgig": 9948,
  "Ġoutlets": 9949,
  "ĠDor": 9950,
  "Ġash": 9951,
  "Ġabstract": 9952,
  "ORD": 9953,
  "ĠMotor": 9954,
  "Ġadviser": 9955,
  "istle": 9956,
  "Ġbases": 9957,
  "Ġcourtesy": 9958,
  "Ġcrossing": 9959,
  "Ġcleared": 9960,
  "Ġrefugee": 9961,
  "Ġthrows": 9962,
  "fun": 9963,
  "days": 9964,
  "Ġdisagree": 9965,
  "ĠNative": 9966,
  "Ġreflected": 9967,
  "ĠFast": 9968,
  "ĠYellow": 9969,
  "ĠRaven": 9970,
  "Ġembrace": 9971,
  "ĠChen": 9972,
  "ĠEarly": 9973,
  "Ġappointment": 9974,
  "ĠMini": 9975,
  "itement": 9976,
  "Ġplacing": 9977,
  "Ġbicy": 9978,
  "Ġwhis": 9979,
  "Ġinvestigated": 9980,
  "Ġphotographs": 9981,
  "ĠBeat": 9982,
  "ĠRing": 9983,
  "ighed": 9984,
  "iar": 9985,
  "erald": 9986,
  "Ġdun": 9987,
  "Ġhub": 9988,
  "Ġencouraging": 9989,
  "ĠPrint": 9990,
  "ĠDays": 9991,
  "Ġpants": 9992,
  "azy": 9993,
  "live": 9994,
  "Ġfossil": 9995,
  "ĠJu": 9996,
  "Ġrocks": 9997,
  "udge": 9998,
  "ĠRace": 9999,
  "Ġgreet": 10000,
  "bie": 10001,
  "Ġfilling": 10002,
  "ĠLen": 10003,
  "Ġdiabetes": 10004,
  "Ġfirearms": 10005,
  "uming": 10006,
  "ĠBB": 10007,
  "Ġaccepting": 10008,
  "Ġresort": 10009,
  "Ġhunt": 10010,
  "rik": 10011,
  "ucker": 10012,
  "aments": 10013,
  "Ġsustained": 10014,
  "Ġcrossed": 10015,
  "Ġbreakfast": 10016,
  "Ġattributes": 10017,
  "lected": 10018,
  "Ġvibr": 10019,
  "ĠKal": 10020,
  "arson": 10021,
  "Ġtouched": 10022,
  "Ġdamages": 10023,
  "Ġimpressed": 10024,
  "rup": 10025,
  "Ġanch": 10026,
  "ĠAdams": 10027,
  "Hel": 10028,
  "ĠVictor": 10029,
  "Ġmounted": 10030,
  "Ġdelicious": 10031,
  "span": 10032,
  "ella": 10033,
  "ĠMission": 10034,
  "ĠTher": 10035,
  "ĠMonster": 10036,
  "bes": 10037,
  "hill": 10038,
  "Ġconfirmation": 10039,
  "ĠConsider": 10040,
  "acent": 10041,
  "Ġjet": 10042,
  "ĠSpider": 10043,
  "ĠRobinson": 10044,
  "Ġrealistic": 10045,
  "Ã±": 10046,
  "Ġappearing": 10047,
  "Ġpipe": 10048,
  "omed": 10049,
  "Ġfru": 10050,
  "Ġawful": 10051,
  "Ġintelligent": 10052,
  "Ġtweets": 10053,
  "Ġworn": 10054,
  "Ġkidn": 10055,
  "ĠSW": 10056,
  "Ġacquisition": 10057,
  "ĠMale": 10058,
  "ĠTHIS": 10059,
  "sign": 10060,
  "Ġorganisation": 10061,
  "enc": 10062,
  "ĠHarper": 10063,
  "ĠPeace": 10064,
  "ĠAirport": 10065,
  "ĠOthers": 10066,
  "Ġscratch": 10067,
  "ĠPil": 10068,
  "Ġsensor": 10069,
  "Ġadoption": 10070,
  "ĠHotel": 10071,
  "ĠDrag": 10072,
  "Ġhonestly": 10073,
  "Ġyard": 10074,
  "Ġpatent": 10075,
  "Ġbass": 10076,
  "Ġquietly": 10077,
  "Ġbreathing": 10078,
  "Ġpose": 10079,
  "iors": 10080,
  "ĠJess": 10081,
  "static": 10082,
  "ITE": 10083,
  "Offic": 10084,
  "Ġjew": 10085,
  "Ġpreview": 10086,
  "ippi": 10087,
  "Ġunfortunately": 10088,
  "Ġhorn": 10089,
  "Ġreass": 10090,
  "Ġpeer": 10091,
  "ocker": 10092,
  "Ġunto": 10093,
  "ĠGray": 10094,
  "Ġcleaning": 10095,
  "Ġattracted": 10096,
  "Point": 10097,
  "ĠAgreement": 10098,
  "Ġworthy": 10099,
  "Ġflowers": 10100,
  "town": 10101,
  "Ġreactions": 10102,
  "Ġdece": 10103,
  "Ġindicating": 10104,
  "Ġpreference": 10105,
  "ĠMVP": 10106,
  "ĠTarget": 10107,
  "ĠIndians": 10108,
  "Ġmisc": 10109,
  "Ġfreely": 10110,
  "Ġmuscles": 10111,
  "Ġlineup": 10112,
  "Ġimpacts": 10113,
  "ousing": 10114,
  "omi": 10115,
  "acular": 10116,
  "Ġcontrolling": 10117,
  "agine": 10118,
  "cery": 10119,
  "hell": 10120,
  "ĠNich": 10121,
  "ĠAve": 10122,
  "Ġhighway": 10123,
  "Ġincons": 10124,
  "Ġbinding": 10125,
  "Ġstruggles": 10126,
  "Ġgray": 10127,
  "rin": 10128,
  "Ġcomics": 10129,
  "ĠSport": 10130,
  "Ġrelatives": 10131,
  "Ġfright": 10132,
  "Ġprobe": 10133,
  "Ġvoc": 10134,
  "Ġtu": 10135,
  "Ġpossibilities": 10136,
  "Ġqualify": 10137,
  "Ġlibraries": 10138,
  "Ġentries": 10139,
  "vals": 10140,
  "Ġhill": 10141,
  "IME": 10142,
  "ĠGard": 10143,
  "fox": 10144,
  "ĠSave": 10145,
  "claimed": 10146,
  "Ġtraits": 10147,
  "Ġpour": 10148,
  "Ġmissiles": 10149,
  "Ġessence": 10150,
  "Ġsends": 10151,
  "Ġalliance": 10152,
  "Ġwishes": 10153,
  "ĠChristopher": 10154,
  "Big": 10155,
  "NY": 10156,
  "ĠJacob": 10157,
  "urred": 10158,
  "ĠSO": 10159,
  "lly": 10160,
  "ĠBond": 10161,
  "Ġ\"/": 10162,
  "Using": 10163,
  "ĠGate": 10164,
  "ĠBir": 10165,
  "ridge": 10166,
  "boards": 10167,
  "ĠReagan": 10168,
  "apy": 10169,
  "Ġchallenged": 10170,
  "Ġbarg": 10171,
  "ĠFif": 10172,
  "Ġacquire": 10173,
  "Ac": 10174,
  "Ġinsect": 10175,
  "Ġinstruments": 10176,
  "Ġleaf": 10177,
  "Message": 10178,
  "Ġtale": 10179,
  "Ġtrap": 10180,
  "Ġstrongest": 10181,
  "ĠMilitary": 10182,
  "Ġflexible": 10183,
  "Ġkills": 10184,
  "Ġfinishing": 10185,
  "ĠSize": 10186,
  "full": 10187,
  "Ġtrace": 10188,
  "Ġlaser": 10189,
  "Ġoppose": 10190,
  "Ġediting": 10191,
  "Ġmomentum": 10192,
  "äº": 10193,
  "show": 10194,
  "VI": 10195,
  "ĠLad": 10196,
  "Ġ1985": 10197,
  "Ġmurdered": 10198,
  "uther": 10199,
  "ĠPoll": 10200,
  "ĠChem": 10201,
  "Ġadequate": 10202,
  "ĠPoland": 10203,
  "umph": 10204,
  "Ġok": 10205,
  "Ġ\"[": 10206,
  "ĠFer": 10207,
  "Ġmodes": 10208,
  "ĠEve": 10209,
  "Ġdiscipline": 10210,
  "NET": 10211,
  "Hand": 10212,
  "ĠWE": 10213,
  "email": 10214,
  "Ġhence": 10215,
  "ĠLess": 10216,
  "Ġoverl": 10217,
  "dig": 10218,
  "ĠCoal": 10219,
  "Ġranging": 10220,
  "tha": 10221,
  "Ġdistant": 10222,
  "Ġfib": 10223,
  "ĠWonder": 10224,
  "ĠHug": 10225,
  "rait": 10226,
  "Ġwrapped": 10227,
  "Ġchemicals": 10228,
  "ĠMoney": 10229,
  "Ġfrozen": 10230,
  "Ġindirect": 10231,
  "ĠAgainst": 10232,
  "End": 10233,
  "Ġuncomfortable": 10234,
  "Ġconsequence": 10235,
  "Ġbitter": 10236,
  "pop": 10237,
  "Ġcountless": 10238,
  "ĠAlaska": 10239,
  "ffff": 10240,
  "Ġdeparture": 10241,
  "Ġrefund": 10242,
  "ĠIan": 10243,
  "iated": 10244,
  "Ġseeks": 10245,
  "Ġmechanics": 10246,
  "lynn": 10247,
  "Ġalike": 10248,
  "ĠHunt": 10249,
  "athon": 10250,
  "Ġresolved": 10251,
  "Ġcache": 10252,
  "Ġdistinction": 10253,
  "beat": 10254,
  "ĠCountry": 10255,
  "search": 10256,
  "Ġcontinuous": 10257,
  "Ġmodest": 10258,
  "ĠRail": 10259,
  "BUG": 10260,
  "Ġcriminals": 10261,
  "Ġindication": 10262,
  "Ġencountered": 10263,
  "last": 10264,
  "ĠJimmy": 10265,
  "ĠEN": 10266,
  "Ġhiring": 10267,
  "Tem": 10268,
  "Ġpig": 10269,
  "aunt": 10270,
  "ĠCrystal": 10271,
  "Ġcapability": 10272,
  "Ġpy": 10273,
  "Ġproductive": 10274,
  "Ġbalanced": 10275,
  "click": 10276,
  "Ġafterwards": 10277,
  "ĠGill": 10278,
  "User": 10279,
  "Ġbacks": 10280,
  "tag": 10281,
  "piring": 10282,
  "Ġtrillion": 10283,
  "ahoo": 10284,
  "umi": 10285,
  "initely": 10286,
  "entry": 10287,
  "bery": 10288,
  "ĠThor": 10289,
  "ĠDJ": 10290,
  "ĠGene": 10291,
  "Ġawkward": 10292,
  "Stud": 10293,
  "Ġwallet": 10294,
  "Ġreleasing": 10295,
  "Ġedited": 10296,
  "Ġaccomplished": 10297,
  "Best": 10298,
  "Ġedges": 10299,
  "Ġplanes": 10300,
  "Ġfeeding": 10301,
  "Ġgrain": 10302,
  "airy": 10303,
  "oons": 10304,
  "ernand": 10305,
  "VR": 10306,
  "Ġreasonably": 10307,
  "Ġdrum": 10308,
  "Ġadvised": 10309,
  "Micro": 10310,
  "points": 10311,
  "scar": 10312,
  "ĠZone": 10313,
  "ttes": 10314,
  "Ġ700": 10315,
  "vo": 10316,
  "Ġfixes": 10317,
  "Ġcaution": 10318,
  "Ġstrings": 10319,
  "Ġpanels": 10320,
  "Ġleak": 10321,
  "rowth": 10322,
  "ĠError": 10323,
  "fix": 10324,
  "Ġobservations": 10325,
  "Ġsuggestion": 10326,
  "Ġbarrier": 10327,
  "Ġpainted": 10328,
  "Bet": 10329,
  "imir": 10330,
  "ĠSpect": 10331,
  "pot": 10332,
  "Ġcompound": 10333,
  "Ġbears": 10334,
  "ĠRush": 10335,
  "Ġluxury": 10336,
  "Sum": 10337,
  "Ġorbit": 10338,
  "ĠMarc": 10339,
  "ĠTrail": 10340,
  "ĠMO": 10341,
  "ĠHans": 10342,
  "ĠWeapon": 10343,
  "ĠJerry": 10344,
  "Ġbust": 10345,
  "Ġendless": 10346,
  "keys": 10347,
  "ĠViol": 10348,
  "lean": 10349,
  "Ġfurniture": 10350,
  "Ġcasting": 10351,
  "ĠPlayers": 10352,
  "Ġmodify": 10353,
  "Ġinnovative": 10354,
  "ĠAbu": 10355,
  "Ġbonds": 10356,
  "Ġcoaching": 10357,
  "Mer": 10358,
  "Ġteammates": 10359,
  "ardo": 10360,
  "Ġcompromise": 10361,
  "ĠMuch": 10362,
  "Ġflew": 10363,
  "ĠEdge": 10364,
  "Ġunnecessary": 10365,
  "report": 10366,
  "friendly": 10367,
  "Ġcomplain": 10368,
  "Ġbeaten": 10369,
  "Ġgolf": 10370,
  "Ġplacement": 10371,
  "Bit": 10372,
  "Ġnewsletter": 10373,
  "rawl": 10374,
  "ĠiPad": 10375,
  "Ġacted": 10376,
  "Ġjuice": 10377,
  "Ġdecks": 10378,
  "success": 10379,
  "ĠHalf": 10380,
  "Ġdeleted": 10381,
  "Ġsecrets": 10382,
  "Mart": 10383,
  "ĠGuy": 10384,
  "Ġdys": 10385,
  "Ġassuming": 10386,
  "ARY": 10387,
  "ride": 10388,
  "Ġdifficulties": 10389,
  "Ġcollecting": 10390,
  "Ġbankrupt": 10391,
  "non": 10392,
  "Ġcomposed": 10393,
  "tor": 10394,
  "Ġparticles": 10395,
  "ĠBart": 10396,
  "Ġadmin": 10397,
  "Ġsquee": 10398,
  "Ġcreator": 10399,
  "Ġgrabbed": 10400,
  "Ġnodd": 10401,
  "Ġrotation": 10402,
  "Ġgrasp": 10403,
  "Ġexcessive": 10404,
  "ĠWhit": 10405,
  "aults": 10406,
  "Ġecosystem": 10407,
  "Ġbillions": 10408,
  "Ġventure": 10409,
  "named": 10410,
  "Ġdefender": 10411,
  "Instead": 10412,
  "War": 10413,
  "Ġbite": 10414,
  "tail": 10415,
  "space": 10416,
  "Ġgifts": 10417,
  "boys": 10418,
  "Ġinevitable": 10419,
  "Ġbeneficial": 10420,
  "hole": 10421,
  "ervation": 10422,
  "Ġcoat": 10423,
  "oj": 10424,
  "ĠYears": 10425,
  "Ġdetermining": 10426,
  "Ġboundaries": 10427,
  "Ġwhites": 10428,
  "Ant": 10429,
  "addy": 10430,
  "raham": 10431,
  "Ġharvest": 10432,
  "Ġlaptop": 10433,
  "ĠMatch": 10434,
  "Ġenjoying": 10435,
  "cca": 10436,
  "ollar": 10437,
  "Ġtrips": 10438,
  "Ġpowered": 10439,
  "Ġcous": 10440,
  "iere": 10441,
  "quality": 10442,
  "Ġdiffer": 10443,
  "Ġkingdom": 10444,
  "ĠLaur": 10445,
  "Ġconclusions": 10446,
  "ĠNav": 10447,
  "Ġtransparent": 10448,
  "Group": 10449,
  "ĠComplete": 10450,
  "RO": 10451,
  "Michael": 10452,
  "Ġmuseum": 10453,
  "Ġreset": 10454,
  "five": 10455,
  "ĠRecord": 10456,
  "Ġdecides": 10457,
  "ĠFix": 10458,
  "Ġexceptions": 10459,
  "uns": 10460,
  "Ġlegendary": 10461,
  "istence": 10462,
  "Ġtunnel": 10463,
  "Ġinsult": 10464,
  "Ġtroll": 10465,
  "Ġshake": 10466,
  "Ġdetention": 10467,
  "ques": 10468,
  "ĠFiles": 10469,
  "Ġsubt": 10470,
  "Ġprospects": 10471,
  "render": 10472,
  "proof": 10473,
  "Ġperformances": 10474,
  "Str": 10475,
  "Ġachievement": 10476,
  "Full": 10477,
  "ampa": 10478,
  "Maybe": 10479,
  "Ġprojected": 10480,
  "ĠEmb": 10481,
  "Ġawards": 10482,
  "Gold": 10483,
  "ĠBlake": 10484,
  "ĠRaj": 10485,
  "ifting": 10486,
  "Ġinstinct": 10487,
  "ĠMand": 10488,
  "ĠWITH": 10489,
  "Ġaltogether": 10490,
  "ĠBund": 10491,
  "oooo": 10492,
  "amped": 10493,
  "Ġsteam": 10494,
  "Ġoldest": 10495,
  "ĠWayne": 10496,
  "fa": 10497,
  "Ġcircles": 10498,
  "ĠFu": 10499,
  "ĠDakota": 10500,
  "jamin": 10501,
  "Ġmotivated": 10502,
  "Ġpurchases": 10503,
  "ĠSpl": 10504,
  "Ġglobe": 10505,
  "zip": 10506,
  "call": 10507,
  "Ġdepartments": 10508,
  "Ġprevented": 10509,
  "Ġdominated": 10510,
  "Ġinvested": 10511,
  "Ġcomplexity": 10512,
  "Ġincl": 10513,
  "Ġensuring": 10514,
  "Ġrealm": 10515,
  "ĠIndependent": 10516,
  "rained": 10517,
  "ĠJen": 10518,
  "ĠFlight": 10519,
  "Ġspeculation": 10520,
  "ĠTE": 10521,
  "ocate": 10522,
  "tic": 10523,
  "Ġplaint": 10524,
  "herry": 10525,
  "Ġtoy": 10526,
  "Ġplates": 10527,
  "Ġdevoted": 10528,
  "Cop": 10529,
  "Ġslaves": 10530,
  "Ġpepper": 10531,
  "Ġceiling": 10532,
  "ĠFish": 10533,
  "Ġtransformation": 10534,
  "Ġfraction": 10535,
  "Ġadvantages": 10536,
  "Ġtoile": 10537,
  "Ġstunning": 10538,
  "Ġmoist": 10539,
  "breaking": 10540,
  "si": 10541,
  "Ġtexts": 10542,
  "Ġugly": 10543,
  "Ġbio": 10544,
  "Ġtrains": 10545,
  "ĠWing": 10546,
  "ĠAncient": 10547,
  "ĠRecords": 10548,
  "ĠHope": 10549,
  "Special": 10550,
  "obi": 10551,
  "Ġtemporarily": 10552,
  "Ver": 10553,
  "hu": 10554,
  "oser": 10555,
  "Ġovernight": 10556,
  "Ġmamm": 10557,
  "Ġtar": 10558,
  "Ġexpects": 10559,
  "black": 10560,
  "Ġacceptance": 10561,
  "Ġradar": 10562,
  "Ġjunior": 10563,
  "Ġframes": 10564,
  "Ġobservation": 10565,
  "acies": 10566,
  "Power": 10567,
  "Mag": 10568,
  "ĠMechan": 10569,
  "Ġsentences": 10570,
  "aughters": 10571,
  "Ġvague": 10572,
  "Ġdirectors": 10573,
  "Ġevaluate": 10574,
  "Ġcabinet": 10575,
  "Matt": 10576,
  "Ang": 10577,
  "ĠBuck": 10578,
  "Ġresearcher": 10579,
  "Ġpoorly": 10580,
  "Ġexperiencing": 10581,
  "ĠPed": 10582,
  "Ġfreed": 10583,
  "Ġthemes": 10584,
  "Ġnin": 10585,
  "Ġpraise": 10586,
  "best": 10587,
  "Ġtrusted": 10588,
  "Ġcease": 10589,
  "Ġdign": 10590,
  "Direct": 10591,
  "Ġbombing": 10592,
  "Ġmigration": 10593,
  "ĠAverage": 10594,
  "Ġglory": 10595,
  "Ġrevealing": 10596,
  "Ġarena": 10597,
  "Ġuncertainty": 10598,
  "Ġbattlefield": 10599,
  "iao": 10600,
  "God": 10601,
  "rape": 10602,
  "elle": 10603,
  "Ġlisting": 10604,
  "Ġwaited": 10605,
  "Ġspotted": 10606,
  "arding": 10607,
  "idding": 10608,
  "Ġlone": 10609,
  "Ġtransf": 10610,
  "Ġwash": 10611,
  "Ġexploring": 10612,
  "atson": 10613,
  "Ġencl": 10614,
  "lies": 10615,
  "ĠCreek": 10616,
  "Ġwooden": 10617,
  "Manager": 10618,
  "ĠBrand": 10619,
  "ummy": 10620,
  "ĠArthur": 10621,
  "Ġblend": 10622,
  "arians": 10623,
  "Further": 10624,
  "Ġsupposedly": 10625,
  "Ġwinds": 10626,
  "Ġgravity": 10627,
  "ĠTravel": 10628,
  "ĠVeter": 10629,
  "Ġdumb": 10630,
  "Ġalternate": 10631,
  "gal": 10632,
  "Ġconsumed": 10633,
  ".''": 10634,
  "Ġpaths": 10635,
  "onda": 10636,
  "ĠStrong": 10637,
  "Ġenables": 10638,
  "Ġescaped": 10639,
  "Ġ\"\"": 10640,
  "Ġsmiled": 10641,
  "Ġtendency": 10642,
  "Fire": 10643,
  "Ġpars": 10644,
  "ĠRoc": 10645,
  "Ġlake": 10646,
  "Ġfitness": 10647,
  "ĠHorn": 10648,
  "Ġimpose": 10649,
  "mother": 10650,
  "borne": 10651,
  "Ġpolar": 10652,
  "isy": 10653,
  "engu": 10654,
  "write": 10655,
  "Ġexercises": 10656,
  "ĠDiamond": 10657,
  "Ġharmful": 10658,
  "Ġprinting": 10659,
  "story": 10660,
  "Ġexpertise": 10661,
  "ĠGer": 10662,
  "Ġtragedy": 10663,
  "ĠFly": 10664,
  "stock": 10665,
  "Mem": 10666,
  "Ġreign": 10667,
  "ĠProphet": 10668,
  "Ġmutual": 10669,
  "Ġreplacing": 10670,
  "Har": 10671,
  "ĠCircuit": 10672,
  "Ġthroat": 10673,
  "Ġbatteries": 10674,
  "Ġtoll": 10675,
  "Ġpupp": 10676,
  "ĠNar": 10677,
  "olk": 10678,
  "ĠLarge": 10679,
  "Dev": 10680,
  "Ġexped": 10681,
  "Ġdemo": 10682,
  "ĠMarshall": 10683,
  "ergus": 10684,
  "Ġfiber": 10685,
  "Ġdivorce": 10686,
  "ĠCreate": 10687,
  "Ġslower": 10688,
  "ĠParker": 10689,
  "ĠTraining": 10690,
  "Return": 10691,
  "ĠTru": 10692,
  "Ġcub": 10693,
  "Ġpanic": 10694,
  "Ġquarters": 10695,
  "Ġrect": 10696,
  "Ġtreating": 10697,
  "Ġrats": 10698,
  "oler": 10699,
  "Ġsacred": 10700,
  "Ġdeclare": 10701,
  "eting": 10702,
  "Ġdelivering": 10703,
  "estone": 10704,
  "ĠLarry": 10705,
  "accept": 10706,
  "artz": 10707,
  "ĠRoger": 10708,
  "handed": 10709,
  "Ġtrapped": 10710,
  "Ġknocked": 10711,
  "Ġsurvivors": 10712,
  "bot": 10713,
  "Ġdemonstration": 10714,
  "Ġdirt": 10715,
  "Ġassists": 10716,
  "ortunate": 10717,
  "pered": 10718,
  "usters": 10719,
  "gt": 10720,
  "ĠLock": 10721,
  "Ġsecured": 10722,
  "outing": 10723,
  "ĠBooks": 10724,
  "Ġhosting": 10725,
  "Ġlifted": 10726,
  "length": 10727,
  "Ġjer": 10728,
  "Ġwheels": 10729,
  "ĠRange": 10730,
  "Ġdiagnosis": 10731,
  "tech": 10732,
  "ĠStewart": 10733,
  "ĠPract": 10734,
  "Ġdear": 10735,
  "Ġgrows": 10736,
  "Ġmandatory": 10737,
  "Ġsuspicious": 10738,
  "!'": 10739,
  "Great": 10740,
  "Ġmortgage": 10741,
  "Ġprocessed": 10742,
  "ungle": 10743,
  "Ġflexibility": 10744,
  "Earlier": 10745,
  "ĠCart": 10746,
  "ĠSug": 10747,
  "Ġfocuses": 10748,
  "Ġbreach": 10749,
  "ĠTob": 10750,
  "cycle": 10751,
  "rose": 10752,
  "Ġbizarre": 10753,
  "Ġvegetables": 10754,
  "Ġretreat": 10755,
  "oshi": 10756,
  "ĠShop": 10757,
  "ĠGround": 10758,
  "ĠStop": 10759,
  "ĠHawaii": 10760,
  "ĠAy": 10761,
  "Perhaps": 10762,
  "uffer": 10763,
  "enna": 10764,
  "Ġproductivity": 10765,
  "control": 10766,
  "Ġabsent": 10767,
  "Green": 10768,
  "Ġidentifying": 10769,
  "Ġregret": 10770,
  "Ġpromoted": 10771,
  "ĠSeven": 10772,
  "Ġeru": 10773,
  "neath": 10774,
  "aughed": 10775,
  "ĠPin": 10776,
  "ĠLiving": 10777,
  "Cost": 10778,
  "Ġempire": 10779,
  "Ġbranches": 10780,
  "edi": 10781,
  "ĠFilm": 10782,
  "ĠSomething": 10783,
  "ĠOriginal": 10784,
  "Gen": 10785,
  "Ġspirits": 10786,
  "Ġearning": 10787,
  "Ġriders": 10788,
  "ĠSalt": 10789,
  "ĠMi": 10790,
  "lict": 10791,
  "Ġhatred": 10792,
  "psy": 10793,
  "Ġtheater": 10794,
  "Ġsophisticated": 10795,
  "Ġdefended": 10796,
  "Ġbesides": 10797,
  "Ġthoroughly": 10798,
  "Ġblamed": 10799,
  "Ġcrying": 10800,
  "priv": 10801,
  "Ġsinging": 10802,
  "Ġcute": 10803,
  "Ġdonation": 10804,
  "ĠEagles": 10805,
  "ĠGive": 10806,
  "Tom": 10807,
  "ĠLicense": 10808,
  "ĠJa": 10809,
  "Ġgrey": 10810,
  "ĠAnimal": 10811,
  "ĠER": 10812,
  "ĠUnd": 10813,
  "Ġkeen": 10814,
  "Engine": 10815,
  "Press": 10816,
  "overs": 10817,
  "llers": 10818,
  "Ġ350": 10819,
  "Ġrou": 10820,
  "erto": 10821,
  "issa": 10822,
  "Ġseal": 10823,
  "display": 10824,
  "Ġweaken": 10825,
  "uum": 10826,
  "ĠSay": 10827,
  "Ġcultures": 10828,
  "Ġlaughed": 10829,
  "Ġslip": 10830,
  "Ġtreatments": 10831,
  "izable": 10832,
  "mart": 10833,
  "ĠRice": 10834,
  "Ġbeast": 10835,
  "ĠLaure": 10836,
  "iga": 10837,
  "Which": 10838,
  "holder": 10839,
  "Ġelderly": 10840,
  "Ġpays": 10841,
  "Ġcomplained": 10842,
  "Ġcrop": 10843,
  "Ġproc": 10844,
  "Ġexplosive": 10845,
  "ĠFan": 10846,
  "eful": 10847,
  "Ġmeals": 10848,
  "idays": 10849,
  "Ġimagination": 10850,
  "asures": 10851,
  "Head": 10852,
  "matic": 10853,
  "Ġboyfriend": 10854,
  "ĠComputer": 10855,
  "Ġbump": 10856,
  "Ġsurge": 10857,
  "ĠCraig": 10858,
  "ĠKirk": 10859,
  "Del": 10860,
  "Ġscenarios": 10861,
  "ĠMut": 10862,
  "ĠStream": 10863,
  "Ġcompetitors": 10864,
  "azed": 10865,
  "bage": 10866,
  "ĠRelease": 10867,
  "Ġseparately": 10868,
  "Ġhabits": 10869,
  "Ġmeasurements": 10870,
  "ĠClose": 10871,
  "Ġaccompany": 10872,
  "Ġtang": 10873,
  "ĠRou": 10874,
  "Ġconvey": 10875,
  "ĠChallenge": 10876,
  "oots": 10877,
  "jan": 10878,
  "ĠRelations": 10879,
  "keeper": 10880,
  "Ġapproaching": 10881,
  "ping": 10882,
  "Speaking": 10883,
  "Ġarrangement": 10884,
  "arettes": 10885,
  "Ġaffecting": 10886,
  "Ġpermits": 10887,
  "because": 10888,
  "Ġuseless": 10889,
  "ĠHus": 10890,
  "!!!!": 10891,
  "Ġdestroying": 10892,
  "Unfortunately": 10893,
  "Ġfascinating": 10894,
  "Sem": 10895,
  "Ġvolunteer": 10896,
  "Ġactivated": 10897,
  "Web": 10898,
  "HE": 10899,
  "isive": 10900,
  "Map": 10901,
  "Ġtrash": 10902,
  "ĠLawrence": 10903,
  "stick": 10904,
  "Cr": 10905,
  "Ġrings": 10906,
  "Ġoperational": 10907,
  "opes": 10908,
  "Does": 10909,
  "ĠEvans": 10910,
  "Ġwitnessed": 10911,
  "Port": 10912,
  "Ġlaunching": 10913,
  "wear": 10914,
  "umm": 10915,
  "ĠTun": 10916,
  "Ġassured": 10917,
  "Ġbetray": 10918,
  "Ġexploration": 10919,
  "ĠFel": 10920,
  "Ġadmission": 10921,
  "itated": 10922,
  "Sy": 10923,
  "Ġavoided": 10924,
  "Ġcelebrated": 10925,
  "ĠElectric": 10926,
  "Ġcluster": 10927,
  "health": 10928,
  "Line": 10929,
  "aton": 10930,
  "Ġspare": 10931,
  "Ġenterprise": 10932,
  "ĠDIS": 10933,
  "Ġflights": 10934,
  "Ġregards": 10935,
  "half": 10936,
  "Ġtrucks": 10937,
  "Ġcontacts": 10938,
  "Ġimmense": 10939,
  "occ": 10940,
  "ective": 10941,
  "Ġpatrol": 10942,
  "Ġbeside": 10943,
  "Ġcreep": 10944,
  "Ġtriggered": 10945,
  "Ġgaining": 10946,
  "asses": 10947,
  "ĠGrey": 10948,
  "sized": 10949,
  "Ġprosper": 10950,
  "\"?": 10951,
  "Ġshar": 10952,
  "Ġfirearm": 10953,
  "Ġfence": 10954,
  "Ġvariations": 10955,
  "giving": 10956,
  "ĠPi": 10957,
  "Ġpledge": 10958,
  "Ġcure": 10959,
  "Ġspy": 10960,
  "Ġviolated": 10961,
  "Ġrushed": 10962,
  "Ġstroke": 10963,
  "sels": 10964,
  "ĠEc": 10965,
  ",''": 10966,
  "Ġpale": 10967,
  "Ġtune": 10968,
  "Ġlaboratory": 10969,
  "Ġdisability": 10970,
  "Ġsinger": 10971,
  "Ġtraded": 10972,
  "ĠWarrior": 10973,
  "ĠFranklin": 10974,
  "Ġstrain": 10975,
  "Ġseventh": 10976,
  "ĠBenn": 10977,
  "ĠTell": 10978,
  "Ġwondered": 10979,
  "iden": 10980,
  "igo": 10981,
  "Ġpurple": 10982,
  "Ġrebel": 10983,
  "blog": 10984,
  "Ġinvite": 10985,
  "Israel": 10986,
  "ĠContent": 10987,
  "Ġcheer": 10988,
  "Ġbedroom": 10989,
  "ĠQueens": 10990,
  "Ġdwell": 10991,
  "ĠDim": 10992,
  "lr": 10993,
  "Ġmotivation": 10994,
  "USA": 10995,
  "astered": 10996,
  "Core": 10997,
  "ĠTruth": 10998,
  "olo": 10999,
  "OSE": 11000,
  "ĠMemory": 11001,
  "Ã¨": 11002,
  "bid": 11003,
  "Ġgrateful": 11004,
  "Ġexcitement": 11005,
  "Ġtreasure": 11006,
  "Ġlongest": 11007,
  "Ġdeserves": 11008,
  "Ġreserves": 11009,
  "Ġcops": 11010,
  "ĠEgyptian": 11011,
  "anked": 11012,
  "Ġpurchasing": 11013,
  "Ġlovely": 11014,
  "Ġdivide": 11015,
  "Ġstrictly": 11016,
  "Ġquestioning": 11017,
  "ĠJoy": 11018,
  "Ġrolls": 11019,
  "ĠHeavy": 11020,
  "Ġports": 11021,
  "Ġmagnetic": 11022,
  "Ġbrush": 11023,
  "âĪĴ": 11024,
  "Ġbottles": 11025,
  "ppy": 11026,
  "Ġpadd": 11027,
  "Ġdevastating": 11028,
  "Ġcompiled": 11029,
  "Ġmedication": 11030,
  "Ġtwelve": 11031,
  "ĠPerry": 11032,
  "Space": 11033,
  "imb": 11034,
  "your": 11035,
  "Ġleaked": 11036,
  "ĠTar": 11037,
  "Ġunity": 11038,
  "Ġinfected": 11039,
  "Ġtraveled": 11040,
  "IDE": 11041,
  "ĠMcDonald": 11042,
  "ĠPow": 11043,
  "Ġbearing": 11044,
  "ĠThread": 11045,
  "Ġzones": 11046,
  "izards": 11047,
  "unks": 11048,
  "Ġwounds": 11049,
  "Ġsucceeded": 11050,
  "iking": 11051,
  "Ġiconic": 11052,
  "Call": 11053,
  "Ġscreening": 11054,
  "ĠMis": 11055,
  "Ġseparation": 11056,
  "Player": 11057,
  "Ġbeloved": 11058,
  "Ġcounting": 11059,
  "ĠEye": 11060,
  "around": 11061,
  "inging": 11062,
  "Ġtablet": 11063,
  "Ġoffence": 11064,
  "have": 11065,
  "ĠNinja": 11066,
  "Ġprotective": 11067,
  "ĠCass": 11068,
  "Mac": 11069,
  "ĠQuality": 11070,
  "North": 11071,
  "Ġic": 11072,
  "ĠProperty": 11073,
  "Ġfastest": 11074,
  "otos": 11075,
  "Ġboom": 11076,
  "ĠStanley": 11077,
  "Ġclever": 11078,
  "Ġenters": 11079,
  "terior": 11080,
  "ĠSens": 11081,
  "ARK": 11082,
  "Ġcomparing": 11083,
  "Ġsafer": 11084,
  "ĠPotter": 11085,
  "Ġcups": 11086,
  "Ġdupl": 11087,
  "ĠPap": 11088,
  "Ġprecious": 11089,
  "Ġpa": 11090,
  "ictionary": 11091,
  "ĠTig": 11092,
  "ĠToo": 11093,
  "Ġrobots": 11094,
  "Ġstatute": 11095,
  "Ġprevention": 11096,
  "ĠMaria": 11097,
  "hal": 11098,
  "None": 11099,
  "ĠFollowing": 11100,
  "ango": 11101,
  "acious": 11102,
  "Ġthou": 11103,
  "Ġkg": 11104,
  "ĠFriends": 11105,
  "Sur": 11106,
  "ainted": 11107,
  "Ġstarter": 11108,
  "onge": 11109,
  "otation": 11110,
  "pur": 11111,
  "eren": 11112,
  "abbit": 11113,
  "ĠOrd": 11114,
  "irk": 11115,
  "Ġsensitivity": 11116,
  "iche": 11117,
  "ĠAmy": 11118,
  "ĠFab": 11119,
  "Ġsummit": 11120,
  "Ġpedest": 11121,
  "Ġrubber": 11122,
  "Ġcancel": 11123,
  "Ġfirmly": 11124,
  "iw": 11125,
  "stage": 11126,
  "ĠKan": 11127,
  "Ġtier": 11128,
  "Ġinvention": 11129,
  "Ġtranslated": 11130,
  "ĠRules": 11131,
  "Box": 11132,
  "Twitter": 11133,
  "Ġpizza": 11134,
  "ĠDrop": 11135,
  "Ġhorses": 11136,
  "big": 11137,
  "Ġboring": 11138,
  "Ġhood": 11139,
  "atched": 11140,
  "Ġskip": 11141,
  "Ġessay": 11142,
  "stat": 11143,
  "Ġammunition": 11144,
  "auc": 11145,
  "Ġshooter": 11146,
  "Ġunh": 11147,
  "Ġsupplied": 11148,
  "Ġgeneric": 11149,
  "ĠSK": 11150,
  "Ġclimbing": 11151,
  "Ġflip": 11152,
  "Ġjumping": 11153,
  "Ġfrustration": 11154,
  "ĠTerry": 11155,
  "Ġneighborhoods": 11156,
  "bean": 11157,
  "Ġbrains": 11158,
  "Following": 11159,
  "Ġshaped": 11160,
  "Ġdraws": 11161,
  "Ġaltered": 11162,
  "Jack": 11163,
  "Ġrecipes": 11164,
  "Ġskilled": 11165,
  "wealth": 11166,
  "election": 11167,
  "Ġbehaviors": 11168,
  "ĠUntil": 11169,
  "Fe": 11170,
  "Ġdeclaration": 11171,
  "marks": 11172,
  "ĠBetween": 11173,
  "Ġreson": 11174,
  "Ġbubble": 11175,
  "Among": 11176,
  "GS": 11177,
  "2005": 11178,
  "ĠKyle": 11179,
  "Ġaccounting": 11180,
  "ĠTele": 11181,
  "Ġconnecting": 11182,
  "Ġmeantime": 11183,
  "Ġphysician": 11184,
  "ĠCampbell": 11185,
  "ĠBrandon": 11186,
  "Ġcontributing": 11187,
  "ĠRule": 11188,
  "ĠWeight": 11189,
  "ĠNap": 11190,
  "Ġinteractive": 11191,
  "Ġvag": 11192,
  "Ġhelmet": 11193,
  "ĠComb": 11194,
  "four": 11195,
  "Ġshipped": 11196,
  "Ġcompleting": 11197,
  "Ġspreading": 11198,
  "Ġscary": 11199,
  "erving": 11200,
  "ĠGas": 11201,
  "Ġfrank": 11202,
  "school": 11203,
  "Ġromantic": 11204,
  "Rob": 11205,
  "Ġaccurately": 11206,
  "ĠHann": 11207,
  "Ġsymbols": 11208,
  "Ġcivilization": 11209,
  "ĠAW": 11210,
  "Ġlightning": 11211,
  "Ġconsiders": 11212,
  "Ġvenue": 11213,
  "Ġoven": 11214,
  "his": 11215,
  "ĠLearn": 11216,
  "Ġpeoples": 11217,
  "Ġslee": 11218,
  "Ġslic": 11219,
  "Ġcorners": 11220,
  "ĠBaker": 11221,
  "Ġ:)": 11222,
  "olver": 11223,
  "Ġlaughing": 11224,
  "ĠTodd": 11225,
  "onde": 11226,
  "ĠHills": 11227,
  "Ġnuts": 11228,
  "ĠWoman": 11229,
  "plane": 11230,
  "Ġliver": 11231,
  "ĠInside": 11232,
  "Sorry": 11233,
  "Ġagrees": 11234,
  "ĠFisher": 11235,
  "Ġauction": 11236,
  "Ġthreads": 11237,
  "glas": 11238,
  "ĠNat": 11239,
  "Ġlacking": 11240,
  "Ġcelebration": 11241,
  "ju": 11242,
  "Ġsilly": 11243,
  "Ġtatt": 11244,
  "ighty": 11245,
  "controlled": 11246,
  "Test": 11247,
  "ĠSingh": 11248,
  "Ġrage": 11249,
  "Ġrhyth": 11250,
  "ĠPhantom": 11251,
  "Ġheadlines": 11252,
  "Ġresponding": 11253,
  "ĠMorning": 11254,
  "Ġvitamin": 11255,
  "Ġboots": 11256,
  "ĠSite": 11257,
  "alin": 11258,
  "pi": 11259,
  "Ġviral": 11260,
  "DER": 11261,
  "Ġstocks": 11262,
  "Ġchurches": 11263,
  "ĠRare": 11264,
  "ĠMurphy": 11265,
  "Ġdenial": 11266,
  "Ġtoug": 11267,
  "Ġnick": 11268,
  "Ġmakers": 11269,
  "ĠRonald": 11270,
  "Ġgenerous": 11271,
  "ĠDoc": 11272,
  "ĠMorris": 11273,
  "Ġtransformed": 11274,
  "ĠNormal": 11275,
  "ĠUpon": 11276,
  "Ġwrap": 11277,
  "Ġloving": 11278,
  "Ġarrives": 11279,
  "ĠDue": 11280,
  "Ġheter": 11281,
  "ĠMade": 11282,
  "Ġrental": 11283,
  "Ġbelongs": 11284,
  "Ġcrops": 11285,
  "Ġmatched": 11286,
  "ulum": 11287,
  "oline": 11288,
  "Ġbuyers": 11289,
  "Ġjustified": 11290,
  "Ġrespected": 11291,
  "winning": 11292,
  "Ġnodded": 11293,
  "Craft": 11294,
  "Ġdash": 11295,
  "ete": 11296,
  "ĠEscape": 11297,
  "Ġknees": 11298,
  "ĠBomb": 11299,
  "Ġrug": 11300,
  "Pass": 11301,
  "Ġattitudes": 11302,
  "Ġqualities": 11303,
  "Ġnotification": 11304,
  "ĠPhone": 11305,
  "lie": 11306,
  "Ġanticipated": 11307,
  "ĠBarry": 11308,
  "oner": 11309,
  "Ġlesser": 11310,
  "Ġpeers": 11311,
  "Ġsubmission": 11312,
  "Ġfare": 11313,
  "ĠBird": 11314,
  "Ġreceipt": 11315,
  "Ġjack": 11316,
  "Ġskull": 11317,
  "Ġpassive": 11318,
  "Ġreminded": 11319,
  "Ġinterference": 11320,
  "Buy": 11321,
  "gon": 11322,
  "ĠWitch": 11323,
  "Ġconducting": 11324,
  "Ġexchanges": 11325,
  "ĠMitchell": 11326,
[...]
